{
  "version": "1.0",
  "truncation": null,
  "padding": null,
  "added_tokens": [
    {
      "id": 0,
      "content": "[UNK]",
      "single_word": false,
      "lstrip": false,
      "rstrip": false,
      "normalized": false,
      "special": true
    },
    {
      "id": 1,
      "content": "[PAD]",
      "single_word": false,
      "lstrip": false,
      "rstrip": false,
      "normalized": false,
      "special": true
    },
    {
      "id": 2,
      "content": "[BOS]",
      "single_word": false,
      "lstrip": false,
      "rstrip": false,
      "normalized": false,
      "special": true
    },
    {
      "id": 3,
      "content": "[EOS]",
      "single_word": false,
      "lstrip": false,
      "rstrip": false,
      "normalized": false,
      "special": true
    }
  ],
  "normalizer": {
    "type": "NFD"
  },
  "pre_tokenizer": {
    "type": "Whitespace"
  },
  "post_processor": null,
  "decoder": null,
  "model": {
    "type": "BPE",
    "dropout": null,
    "unk_token": "[UNK]",
    "continuing_subword_prefix": null,
    "end_of_word_suffix": null,
    "fuse_unk": false,
    "byte_fallback": false,
    "ignore_merges": false,
    "vocab": {
      "[UNK]": 0,
      "[PAD]": 1,
      "[BOS]": 2,
      "[EOS]": 3,
      "!": 4,
      "\"": 5,
      "'": 6,
      "(": 7,
      ")": 8,
      "*": 9,
      ",": 10,
      "-": 11,
      ".": 12,
      "/": 13,
      ":": 14,
      ";": 15,
      "[": 16,
      "]": 17,
      "`": 18,
      "{": 19,
      "}": 20,
      "~": 21,
      "«": 22,
      "»": 23,
      "،": 24,
      "؛": 25,
      "؟": 26,
      "ء": 27,
      "ا": 28,
      "ب": 29,
      "ة": 30,
      "ت": 31,
      "ث": 32,
      "ج": 33,
      "ح": 34,
      "خ": 35,
      "د": 36,
      "ذ": 37,
      "ر": 38,
      "ز": 39,
      "س": 40,
      "ش": 41,
      "ص": 42,
      "ض": 43,
      "ط": 44,
      "ظ": 45,
      "ع": 46,
      "غ": 47,
      "ف": 48,
      "ق": 49,
      "ك": 50,
      "ل": 51,
      "م": 52,
      "ن": 53,
      "ه": 54,
      "و": 55,
      "ي": 56,
      "ً": 57,
      "ٌ": 58,
      "ٍ": 59,
      "َ": 60,
      "ُ": 61,
      "ِ": 62,
      "ّ": 63,
      "ْ": 64,
      "ٓ": 65,
      "ٔ": 66,
      "ٕ": 67,
      "َا": 68,
      "لَ": 69,
      "ال": 70,
      "َٔ": 71,
      "َّ": 72,
      "ِي": 73,
      "أَ": 74,
      "هُ": 75,
      "وَ": 76,
      "الْ": 77,
      "نْ": 78,
      "عَ": 79,
      "لِ": 80,
      "مَ": 81,
      "هِ": 82,
      "يْ": 83,
      "بِ": 84,
      "وْ": 85,
      "تَ": 86,
      "قَ": 87,
      "مِ": 88,
      "رَ": 89,
      "يَ": 90,
      "فَ": 91,
      "نَ": 92,
      "مُ": 93,
      "بَ": 94,
      "مَا": 95,
      "وَا": 96,
      "كَ": 97,
      "لَا": 98,
      "نَّ": 99,
      "ُو": 100,
      "فِي": 101,
      "مْ": 102,
      "حَ": 103,
      "لُ": 104,
      "لْ": 105,
      "دَ": 106,
      "رِ": 107,
      "نِ": 108,
      "عَلَ": 109,
      "بْ": 110,
      "هَا": 111,
      "ِٕ": 112,
      "ةِ": 113,
      "إ": 114,
      "مِنْ": 115,
      "عْ": 116,
      "لَّ": 117,
      "أَنَّ": 118,
      "سَ": 119,
      "سْ": 120,
      "ًا": 121,
      "رْ": 122,
      "يُ": 123,
      "قَا": 124,
      "ِّ": 125,
      "رُ": 126,
      "أَوْ": 127,
      "قَوْ": 128,
      "تِ": 129,
      "هَ": 130,
      "عِ": 131,
      "كَا": 132,
      "فَا": 133,
      "جَ": 134,
      "ذَ": 135,
      "دِ": 136,
      "ُّ": 137,
      "صَ": 138,
      "حْ": 139,
      "عَلَي": 140,
      "ذَا": 141,
      "تْ": 142,
      "الْمُ": 143,
      "لُهُ": 144,
      "مَّ": 145,
      "رَا": 146,
      "نُ": 147,
      "قْ": 148,
      "َيْ": 149,
      "نَا": 150,
      "لَهُ": 151,
      "يْهِ": 152,
      "عُ": 153,
      "دَّ": 154,
      "قَالَ": 155,
      "لَمْ": 156,
      "عَنْ": 157,
      "قَوْلُهُ": 158,
      "ثَ": 159,
      "خَ": 160,
      "تُ": 161,
      "فِ": 162,
      "خْ": 163,
      "أَيْ": 164,
      "حِ": 165,
      "ةَ": 166,
      "الْمَ": 167,
      "فْ": 168,
      "أَنَّهُ": 169,
      "دُ": 170,
      "لِكَ": 171,
      "ةُ": 172,
      "أَنْ": 173,
      "كُ": 174,
      "دْ": 175,
      "عَلَيْهِ": 176,
      "ِٕنْ": 177,
      "بُ": 178,
      "ذَلِكَ": 179,
      "جِ": 180,
      "لَوْ": 181,
      "قِ": 182,
      "جْ": 183,
      "رَّ": 184,
      "كَانَ": 185,
      "إِ": 186,
      "ِيَ": 187,
      "الْأَ": 188,
      "كْ": 189,
      "تَّ": 190,
      "قُ": 191,
      "ثُ": 192,
      "شَ": 193,
      "ةٍ": 194,
      "سِ": 195,
      "كِ": 196,
      "غَيْ": 197,
      "بِي": 198,
      "بَا": 199,
      "شْ": 200,
      "هُوَ": 201,
      "صْ": 202,
      "زَ": 203,
      "ضَ": 204,
      "يِ": 205,
      "ُٔ": 206,
      "بِهِ": 207,
      "حُ": 208,
      "طَ": 209,
      "إلَ": 210,
      "وَالْ": 211,
      "رِي": 212,
      "اللَّ": 213,
      "ئِ": 214,
      "مَنْ": 215,
      "بَيْ": 216,
      "عَا": 217,
      "بَعْ": 218,
      "ةً": 219,
      "نِي": 220,
      "ةٌ": 221,
      "جُ": 222,
      "هْ": 223,
      "حَا": 224,
      "قِي": 225,
      "َّا": 226,
      "تَا": 227,
      "فُ": 228,
      "ْٔ": 229,
      "طْ": 230,
      "لِلْ": 231,
      "وَلَا": 232,
      "يْنِ": 233,
      "وَإِنْ": 234,
      "لِي": 235,
      "وَأَ": 236,
      "لِهِ": 237,
      "أُ": 238,
      "لِأَنَّ": 239,
      "جَا": 240,
      "رٍ": 241,
      "ضِ": 242,
      "صِ": 243,
      "يَا": 244,
      "بْنِ": 245,
      "غَيْرِ": 246,
      "ذْ": 247,
      "الْعَ": 248,
      "دٍ": 249,
      "ءِ": 250,
      "ثْ": 251,
      "هَذَا": 252,
      "تِهِ": 253,
      "فِيهِ": 254,
      "بْنُ": 255,
      "غَ": 256,
      "الْإِ": 257,
      "مِنْهُ": 258,
      "خِ": 259,
      "قَدْ": 260,
      "لَّا": 261,
      "لِأَنَّهُ": 262,
      "سُ": 263,
      "دَا": 264,
      "سْتَ": 265,
      "التَّ": 266,
      "لِّ": 267,
      "كُو": 268,
      "وَلَوْ": 269,
      "الْحَ": 270,
      "صَا": 271,
      "إنْ": 272,
      "مَّا": 273,
      "ثُمَّ": 274,
      "دِي": 275,
      "مِي": 276,
      "وَهُوَ": 277,
      "سَا": 278,
      "إذَا": 279,
      "خُ": 280,
      "وَلَ": 281,
      "بَعْدَ": 282,
      "جُو": 283,
      "لٍ": 284,
      "قَبْ": 285,
      "الش": 286,
      "كَمَا": 287,
      "صَّ": 288,
      "اللَّهُ": 289,
      "يِّ": 290,
      "وَإِ": 291,
      "آ": 292,
      "فَإِنْ": 293,
      "مَعَ": 294,
      "وَّ": 295,
      "الس": 296,
      "النَّ": 297,
      "مٍ": 298,
      "عِي": 299,
      "ذِ": 300,
      "فَإِ": 301,
      "إلَي": 302,
      "وَيَ": 303,
      "لَي": 304,
      "فَلَا": 305,
      "زِ": 306,
      "وُ": 307,
      "رٌ": 308,
      "الْوَ": 309,
      "نْدَ": 310,
      "رُو": 311,
      "يَّ": 312,
      "وَسَ": 313,
      "قُو": 314,
      "وَال": 315,
      "ءَ": 316,
      "الرَّ": 317,
      "شَيْ": 318,
      "مَالِ": 319,
      "بَيْنَ": 320,
      "لٌ": 321,
      "لُّ": 322,
      "هُمَا": 323,
      "طِ": 324,
      "بِالْ": 325,
      "عِنْدَ": 326,
      "نِّ": 327,
      "تِي": 328,
      "ضْ": 329,
      "هُمْ": 330,
      "يْسَ": 331,
      "لًا": 332,
      "نٍ": 333,
      "عَبْ": 334,
      "شْتَ": 335,
      "الث": 336,
      "ضَا": 337,
      "صِي": 338,
      "بُو": 339,
      "طَا": 340,
      "أَحَ": 341,
      "ضُ": 342,
      "مُو": 343,
      "تَقَ": 344,
      "الِ": 345,
      "دِّ": 346,
      "ثِ": 347,
      "شَا": 348,
      "فَيَ": 349,
      "لَّي": 350,
      "أَبِي": 351,
      "إلَّا": 352,
      "رَةِ": 353,
      "دِهِ": 354,
      "فَإِنَّ": 355,
      "رِّ": 356,
      "خَا": 357,
      "رَهُ": 358,
      "صَلَّي": 359,
      "قَبْلَ": 360,
      "غْ": 361,
      "قَوْلِهِ": 362,
      "اسْ": 363,
      "لَّمَ": 364,
      "ذِي": 365,
      "حِي": 366,
      "َّةِ": 367,
      "حَق": 368,
      "إلَخْ": 369,
      "طُ": 370,
      "حَدَّ": 371,
      "بٍ": 372,
      "لُو": 373,
      "وَيُ": 374,
      "خِلَا": 375,
      "ظَ": 376,
      "وَكَ": 377,
      "رًا": 378,
      "نَفْ": 379,
      "الصَّ": 380,
      "تُهُ": 381,
      "اللَّهِ": 382,
      "الَّ": 383,
      "عَنْهُ": 384,
      "مِثْ": 385,
      "فَأَ": 386,
      "دٌ": 387,
      "الشَّ": 388,
      "يَتَ": 389,
      "زُ": 390,
      "حَدَّثَ": 391,
      "زْ": 392,
      "مَعْ": 393,
      "وَسَلَّمَ": 394,
      "يُو": 395,
      "زَا": 396,
      "وِ": 397,
      "لَةِ": 398,
      "وَاحِ": 399,
      "رُّ": 400,
      "عَدَ": 401,
      "دُّ": 402,
      "دُو": 403,
      "الز": 404,
      "لَيْسَ": 405,
      "عْتَ": 406,
      "ضِي": 407,
      "وَلَمْ": 408,
      "يَحْ": 409,
      "ابْنُ": 410,
      "ّا": 411,
      "غَيْرِهِ": 412,
      "مٌ": 413,
      "ذُ": 414,
      "حُكْ": 415,
      "لِل": 416,
      "السَّ": 417,
      "يَكُو": 418,
      "يَأْ": 419,
      "الْقَ": 420,
      "نِهِ": 421,
      "رِهِ": 422,
      "ذَكَ": 423,
      "مَوْ": 424,
      "شَرْ": 425,
      "صِح": 426,
      "مِّ": 427,
      "الْبَ": 428,
      "حَدَّثَنَا": 429,
      "انْ": 430,
      "مَةِ": 431,
      "غَيْرُ": 432,
      "وَتَ": 433,
      "الدَّ": 434,
      "يَنْ": 435,
      "صُو": 436,
      "الْفَ": 437,
      "سُو": 438,
      "أَرْ": 439,
      "دًا": 440,
      "يَعْ": 441,
      "رَجَ": 442,
      "نَحْ": 443,
      "زِي": 444,
      "فَقَ": 445,
      "تَّي": 446,
      "ءُ": 447,
      "سْلِ": 448,
      "مِلْ": 449,
      "وِي": 450,
      "وَجَ": 451,
      "ءٌ": 452,
      "أَمْ": 453,
      "هِيَ": 454,
      "سِهِ": 455,
      "رَأَ": 456,
      "ضًا": 457,
      "حَتَّي": 458,
      "الَّذِي": 459,
      "أَخْ": 460,
      "مِهِ": 461,
      "ًّا": 462,
      "الْجَ": 463,
      "كُلِّ": 464,
      "بَلْ": 465,
      "مًا": 466,
      "وَقَدْ": 467,
      "بَةِ": 468,
      "كُنْ": 469,
      "مَهُ": 470,
      "وَقَ": 471,
      "عًا": 472,
      "ءٍ": 473,
      "ٍّ": 474,
      "رَي": 475,
      "بِهَا": 476,
      "تَعَ": 477,
      "شُ": 478,
      "قُلْ": 479,
      "آخَ": 480,
      "اسْتِ": 481,
      "أَعْ": 482,
      "مُهُ": 483,
      "يَوْ": 484,
      "الْحَا": 485,
      "مُحَ": 486,
      "نَّمَا": 487,
      "وَقَالَ": 488,
      "جِبُ": 489,
      "ابْنِ": 490,
      "الْمَا": 491,
      "يَةِ": 492,
      "نَي": 493,
      "الْعِ": 494,
      "ذِهِ": 495,
      "طَّ": 496,
      "بَّ": 497,
      "ٌّ": 498,
      "لَهَا": 499,
      "خِلَافِ": 500,
      "غَا": 501,
      "حَيْ": 502,
      "رَجُ": 503,
      "وَفِي": 504,
      "قْتَ": 505,
      "الثَّ": 506,
      "هُو": 507,
      "عٍ": 508,
      "ظَا": 509,
      "عَةِ": 510,
      "صُ": 511,
      "فَقَالَ": 512,
      "كَانَتْ": 513,
      "الْقَا": 514,
      "كَلَا": 515,
      "هَذِهِ": 516,
      "بًا": 517,
      "مَرَ": 518,
      "لْزَ": 519,
      "أَصْ": 520,
      "نٌ": 521,
      "الزَّ": 522,
      "عَمْ": 523,
      "كِي": 524,
      "كَالْ": 525,
      "نًا": 526,
      "فَإِنَّهُ": 527,
      "غُ": 528,
      "ثَلَا": 529,
      "جُوزُ": 530,
      "الْأُ": 531,
      "بِمَا": 532,
      "خَمْ": 533,
      "أَهْ": 534,
      "شِ": 535,
      "وَجْ": 536,
      "عٌ": 537,
      "جَّ": 538,
      "وَإِلَّا": 539,
      "رَةُ": 540,
      "فَرْ": 541,
      "وَي": 542,
      "خِي": 543,
      "إلَيْهِ": 544,
      "مَسْ": 545,
      "بِأَنْ": 546,
      "أَبُو": 547,
      "النِّ": 548,
      "صَح": 549,
      "بِخِلَافِ": 550,
      "مُحَمَّ": 551,
      "مَرَّ": 552,
      "وُجُو": 553,
      "ؤْ": 554,
      "تَهُ": 555,
      "رَةَ": 556,
      "قِيمَ": 557,
      "أَحْ": 558,
      "ظَاهِ": 559,
      "نَفْسِهِ": 560,
      "قَوْلُ": 561,
      "يَكُنْ": 562,
      "فٍ": 563,
      "عَبْدِ": 564,
      "حَيْثُ": 565,
      "أَكْ": 566,
      "عَلَيْ": 567,
      "رُهُ": 568,
      "طْلَ": 569,
      "أَيْضًا": 570,
      "كَذَا": 571,
      "تَيْنِ": 572,
      "قِيلَ": 573,
      "رَسُو": 574,
      "وَمَا": 575,
      "إذْ": 576,
      "ظُ": 577,
      "فَهُوَ": 578,
      "سِي": 579,
      "كَّ": 580,
      "مِنْهَا": 581,
      "فِيهَا": 582,
      "تَأْ": 583,
      "جِي": 584,
      "نُو": 585,
      "لِمَ": 586,
      "الْأَوَّ": 587,
      "هُنَا": 588,
      "لَفَ": 589,
      "غِي": 590,
      "فَالْ": 591,
      "فَعَ": 592,
      "دَةِ": 593,
      "نِصْ": 594,
      "قًا": 595,
      "وَكَذَا": 596,
      "دَهُ": 597,
      "أَجْ": 598,
      "سٍ": 599,
      "وَقَوْلُهُ": 600,
      "نَةِ": 601,
      "فٌ": 602,
      "نَّهُ": 603,
      "وَأَمَّا": 604,
      "الْكَ": 605,
      "مَالِك": 606,
      "فِيمَا": 607,
      "الطَّ": 608,
      "لِمَا": 609,
      "الْبَا": 610,
      "الْعَبْ": 611,
      "وَرَ": 612,
      "الْمَوْ": 613,
      "قَوْلِ": 614,
      "بٌ": 615,
      "صِحُّ": 616,
      "ضِيَ": 617,
      "تَعَا": 618,
      "قٌ": 619,
      "شَرَ": 620,
      "عْتِ": 621,
      "كُلُّ": 622,
      "فًا": 623,
      "ضَّ": 624,
      "مَنِ": 625,
      "عَلَّ": 626,
      "فَيُ": 627,
      "تِهَا": 628,
      "نَحْوِ": 629,
      "الْبَيْ": 630,
      "نَهُ": 631,
      "يَقْ": 632,
      "مُّ": 633,
      "هَلْ": 634,
      "عُو": 635,
      "تَبَ": 636,
      "الص": 637,
      "لِلْمُ": 638,
      "بِإِ": 639,
      "حْتَ": 640,
      "الْمَالِ": 641,
      "أَسْ": 642,
      "وَالْمُ": 643,
      "عِهِ": 644,
      "يَكُونَ": 645,
      "بِعَ": 646,
      "يَجُوزُ": 647,
      "فِعْ": 648,
      "وَهَذَا": 649,
      "ظْ": 650,
      "صَاحِ": 651,
      "بَرَ": 652,
      "ضٍ": 653,
      "امْ": 654,
      "ثَا": 655,
      "يَرْ": 656,
      "سَبَ": 657,
      "دَّمَ": 658,
      "زَوْ": 659,
      "الْمَسْ": 660,
      "عَدَمِ": 661,
      "ئَ": 662,
      "وَلِ": 663,
      "يَلْزَ": 664,
      "أَقَ": 665,
      "كِتَا": 666,
      "يَمْ": 667,
      "كِنْ": 668,
      "كَذَلِكَ": 669,
      "عَلَيْهَا": 670,
      "جَازَ": 671,
      "قَّ": 672,
      "فَةَ": 673,
      "مِلْكِ": 674,
      "خْتَ": 675,
      "أَشْ": 676,
      "اسْتَ": 677,
      "فَتَ": 678,
      "تَعَالَي": 679,
      "قٍ": 680,
      "مَاتَ": 681,
      "طِي": 682,
      "بِذَلِكَ": 683,
      "الْخَ": 684,
      "بَعْضُ": 685,
      "أَحَدُ": 686,
      "يَكُونُ": 687,
      "مِمَّا": 688,
      "يَبْ": 689,
      "تَأَ": 690,
      "تٍ": 691,
      "خَذَ": 692,
      "بَهُ": 693,
      "الْإِمَا": 694,
      "ًٔ": 695,
      "الْعُ": 696,
      "طَلَ": 697,
      "قُولُ": 698,
      "الْأَرْ": 699,
      "شْتَرِي": 700,
      "حَقِّ": 701,
      "كَأَ": 702,
      "قْرَا": 703,
      "عُهُ": 704,
      "لَمُ": 705,
      "وَهِيَ": 706,
      "الِا": 707,
      "ذَّ": 708,
      "أَلْ": 709,
      "قِيَ": 710,
      "فَإِذَا": 711,
      "لِيَ": 712,
      "كُمْ": 713,
      "رَكَ": 714,
      "مَلَ": 715,
      "سَّ": 716,
      "الْأَصْ": 717,
      "الْوَا": 718,
      "وَاحِدٍ": 719,
      "كَوْ": 720,
      "نُهُ": 721,
      "تَقَدَّمَ": 722,
      "غَيْرَ": 723,
      "الْحُ": 724,
      "يِّنَ": 725,
      "يَسْتَ": 726,
      "تَوَ": 727,
      "الْمُصَ": 728,
      "اُ": 729,
      "وَمَنْ": 730,
      "رَادَ": 731,
      "بِلَا": 732,
      "ذَكَرَ": 733,
      "وَمَ": 734,
      "الشَّا": 735,
      "ثَلَاثَ": 736,
      "تِّ": 737,
      "أَوَّ": 738,
      "شَيْءٍ": 739,
      "مُسْتَ": 740,
      "مِنْهُمَا": 741,
      "وَإِنَّمَا": 742,
      "الثَّا": 743,
      "بِّ": 744,
      "مَةَ": 745,
      "دُهُ": 746,
      "عَيَّ": 747,
      "بَعْضِ": 748,
      "عَهُ": 749,
      "حِينَ": 750,
      "ثِي": 751,
      "وَلَيْسَ": 752,
      "السُّ": 753,
      "دَيْ": 754,
      "َّةُ": 755,
      "الْعَقْ": 756,
      "وَقْ": 757,
      "الْجُ": 758,
      "قَطَ": 759,
      "رَضِيَ": 760,
      "جَمِي": 761,
      "ًٔا": 762,
      "أَرْبَ": 763,
      "أَكْثَ": 764,
      "كُونُ": 765,
      "ابْ": 766,
      "ظِ": 767,
      "الْقِ": 768,
      "الرِّ": 769,
      "مَلُ": 770,
      "شِي": 771,
      "صَحَّ": 772,
      "صَلَا": 773,
      "وَنَ": 774,
      "عَيْ": 775,
      "الزَّوْ": 776,
      "بِغَيْرِ": 777,
      "قَتْ": 778,
      "يَمِي": 779,
      "بِأَنَّ": 780,
      "تَعْ": 781,
      "رَةٍ": 782,
      "الْآ": 783,
      "الْعَا": 784,
      "مُسْلِ": 785,
      "خَرَجَ": 786,
      "بَلَ": 787,
      "رْهَ": 788,
      "رَأْ": 789,
      "دُونَ": 790,
      "زَيْ": 791,
      "الْمُصَنِّ": 792,
      "ئًا": 793,
      "الْمَذْ": 794,
      "بِيِّ": 795,
      "وَإِذَا": 796,
      "كِّ": 797,
      "فَلَوْ": 798,
      "يُعْ": 799,
      "يَأْتِي": 800,
      "نِيَ": 801,
      "أَلَ": 802,
      "بِيَ": 803,
      "نُّ": 804,
      "النَّا": 805,
      "أَفْ": 806,
      "مِا": 807,
      "تَنْ": 808,
      "مِائَ": 809,
      "يَوْمَ": 810,
      "لّ": 811,
      "الْغَ": 812,
      "يَسْ": 813,
      "إنَّمَا": 814,
      "يَجِبُ": 815,
      "مَانِ": 816,
      "قِيَا": 817,
      "خُو": 818,
      "بِقَوْلِهِ": 819,
      "اشْتَ": 820,
      "عُمَرَ": 821,
      "تَحْ": 822,
      "جِّ": 823,
      "بُهُ": 824,
      "عَي": 825,
      "يَخْ": 826,
      "حٍ": 827,
      "رْتَ": 828,
      "يُمْ": 829,
      "أَهْلِ": 830,
      "وَمُ": 831,
      "شَيْئًا": 832,
      "فَرَ": 833,
      "حَدِي": 834,
      "فَتْ": 835,
      "أَوْلَي": 836,
      "الْمُو": 837,
      "خَلَ": 838,
      "وَاحِدَ": 839,
      "مُطْلَ": 840,
      "وَقِيلَ": 841,
      "وَعَ": 842,
      "ئِهِ": 843,
      "قَامَ": 844,
      "تَقْ": 845,
      "شَيْءٌ": 846,
      "هْرِ": 847,
      "وَاءٌ": 848,
      "أَقْ": 849,
      "حٌ": 850,
      "قِهِ": 851,
      "الْخُ": 852,
      "الْمَنْ": 853,
      "دَّةِ": 854,
      "ثُلُ": 855,
      "الْقُ": 856,
      "الْجِ": 857,
      "بُّ": 858,
      "ؤُ": 859,
      "عَةَ": 860,
      "الْأَوَّلِ": 861,
      "فُو": 862,
      "تَرْ": 863,
      "كُلَّ": 864,
      "لَيْ": 865,
      "حُكْمِ": 866,
      "قُّ": 867,
      "مَحَ": 868,
      "لَهُمْ": 869,
      "امْرَأَ": 870,
      "غَيْرُهُ": 871,
      "ضُو": 872,
      "وَبِ": 873,
      "غِ": 874,
      "مَعْنَي": 875,
      "يَصِحُّ": 876,
      "دِرْهَ": 877,
      "الرَّا": 878,
      "آخَرَ": 879,
      "الصَّلَا": 880,
      "دَتْ": 881,
      "وَاهُ": 882,
      "مَنُ": 883,
      "خَمْسَ": 884,
      "بَةُ": 885,
      "زَوَّ": 886,
      "وَجَبَ": 887,
      "الضَّ": 888,
      "وَحَ": 889,
      "ظْهَ": 890,
      "بَرُ": 891,
      "حَقَّ": 892,
      "جَوَا": 893,
      "ضَي": 894,
      "أَخَذَ": 895,
      "لِأَنَّهَا": 896,
      "مِنْهُمْ": 897,
      "نَقْ": 898,
      "الْوَقْ": 899,
      "وَقَعَ": 900,
      "ذٍ": 901,
      "حْرِ": 902,
      "صَارَ": 903,
      "ذَكَرَهُ": 904,
      "الرُّ": 905,
      "مَحْ": 906,
      "بَيْنَهُمَا": 907,
      "بَقِيَ": 908,
      "الِاسْتِ": 909,
      "فَقَدْ": 910,
      "أَمَّا": 911,
      "لِفَ": 912,
      "مَعَهُ": 913,
      "زَّ": 914,
      "يَدْ": 915,
      "سْلَا": 916,
      "رَيْ": 917,
      "عِتْ": 918,
      "قَالَهُ": 919,
      "ءً": 920,
      "خِيَا": 921,
      "وَاَ": 922,
      "وَالِ": 923,
      "عِبَا": 924,
      "قَةِ": 925,
      "نَعَمْ": 926,
      "أَنَّهَا": 927,
      "الْمَعْ": 928,
      "الْمَرْ": 929,
      "رَحِ": 930,
      "مِثْلِ": 931,
      "يِي": 932,
      "لَكِنْ": 933,
      "الْعَبْدِ": 934,
      "فِهِ": 935,
      "تُو": 936,
      "فَلَمْ": 937,
      "بَيِّنَ": 938,
      "وَمِنْ": 939,
      "الَّتِي": 940,
      "يُقْ": 941,
      "الْحِ": 942,
      "الْمُسْتَ": 943,
      "سَنَ": 944,
      "فَّا": 945,
      "هِي": 946,
      "بَدَ": 947,
      "عَةٍ": 948,
      "تَصَ": 949,
      "رَاءَ": 950,
      "رَجُلٍ": 951,
      "الْبُ": 952,
      "بِنَا": 953,
      "فَلَ": 954,
      "بَعْدَهُ": 955,
      "لا": 956,
      "جُزْ": 957,
      "فُلَا": 958,
      "قُلْتُ": 959,
      "بَتَ": 960,
      "تَي": 961,
      "اعْتِ": 962,
      "الْمُشْتَرِي": 963,
      "فَّ": 964,
      "الْوَلَ": 965,
      "مَالِكٍ": 966,
      "يَّا": 967,
      "يَضْ": 968,
      "نَاهُ": 969,
      "أَمَ": 970,
      "بَغِي": 971,
      "وَأُ": 972,
      "فَةِ": 973,
      "مُتَ": 974,
      "يُّ": 975,
      "نَظَ": 976,
      "فُهُ": 977,
      "ثْبُ": 978,
      "أَخْبَرَ": 979,
      "قَدَّ": 980,
      "فَلْ": 981,
      "ذُو": 982,
      "صَي": 983,
      "إِنْ": 984,
      "سَيِّ": 985,
      "يَأْخُ": 986,
      "الْمُسْلِ": 987,
      "لَمَ": 988,
      "الظ": 989,
      "أُخْ": 990,
      "حُكْمُ": 991,
      "شَرْحِ": 992,
      "بِمُ": 993,
      "سَوَاءٌ": 994,
      "عِنْدَهُ": 995,
      "بَةَ": 996,
      "رِيَ": 997,
      "أُمِّ": 998,
      "الْآخَ": 999,
      "دَةُ": 1000,
      "قَالُ": 1001,
      "أَحَدُهُمَا": 1002,
      "قَبْضِ": 1003,
      "مَانَ": 1004,
      "يَعْنِي": 1005,
      "مِنَ": 1006,
      "شْتَرَ": 1007,
      "اخْ": 1008,
      "ئِذٍ": 1009,
      "بِأَنَّهُ": 1010,
      "مُطْلَقًا": 1011,
      "يُؤَ": 1012,
      "وَكَذَلِكَ": 1013,
      "بَّا": 1014,
      "عَشَرَ": 1015,
      "مَرْ": 1016,
      "عَبْدُ": 1017,
      "عَةُ": 1018,
      "الشَّرْ": 1019,
      "إنَّ": 1020,
      "رَةٌ": 1021,
      "يَفْ": 1022,
      "عَقْ": 1023,
      "لَتْ": 1024,
      "لَزِ": 1025,
      "ضَرَ": 1026,
      "للَّ": 1027,
      "مَةُ": 1028,
      "لٍّ": 1029,
      "رَةً": 1030,
      "رِينَ": 1031,
      "قِّ": 1032,
      "نَقَ": 1033,
      "غْنِي": 1034,
      "دَّعَي": 1035,
      "تَفْ": 1036,
      "أَحْمَ": 1037,
      "الْبَائِ": 1038,
      "صَحِي": 1039,
      "زَوْجَ": 1040,
      "عَرَ": 1041,
      "فَقَطْ": 1042,
      "الْفَرْ": 1043,
      "لِكُ": 1044,
      "جِعُ": 1045,
      "طَالِ": 1046,
      "يُنْ": 1047,
      "تُهَا": 1048,
      "الدِّ": 1049,
      "وَكَانَ": 1050,
      "يُجْ": 1051,
      "ذِّ": 1052,
      "َّةَ": 1053,
      "وَنَحْوِ": 1054,
      "لِمَنْ": 1055,
      "صَدَ": 1056,
      "الشَّيْ": 1057,
      "الشُّ": 1058,
      "وَذَلِكَ": 1059,
      "بِحَ": 1060,
      "دَةَ": 1061,
      "قَهُ": 1062,
      "فَلَهُ": 1063,
      "شَاءَ": 1064,
      "هٌ": 1065,
      "رَمَ": 1066,
      "الْقَاضِي": 1067,
      "بِنْ": 1068,
      "أَقَرَّ": 1069,
      "طُو": 1070,
      "زَوَّجَ": 1071,
      "دَيْنِ": 1072,
      "رِكَ": 1073,
      "كَال": 1074,
      "سَائِ": 1075,
      "هَبَ": 1076,
      "عَتْ": 1077,
      "إِلَي": 1078,
      "نِهَا": 1079,
      "يَدِ": 1080,
      "سَلَ": 1081,
      "عَلِي": 1082,
      "رَدُّ": 1083,
      "رَادُ": 1084,
      "كَلَامِ": 1085,
      "وِّ": 1086,
      "زِيَا": 1087,
      "مِلَ": 1088,
      "مَجْ": 1089,
      "سَمِ": 1090,
      "وَضَ": 1091,
      "عْتُ": 1092,
      "خَيْ": 1093,
      "نَّا": 1094,
      "شَهَا": 1095,
      "صُّ": 1096,
      "فِّ": 1097,
      "رَجُلٌ": 1098,
      "مَالِهِ": 1099,
      "وَعَلَي": 1100,
      "رَاءِ": 1101,
      "حِينَئِذٍ": 1102,
      "حَلَفَ": 1103,
      "الْوَصِي": 1104,
      "زُو": 1105,
      "مُحَمَّدٍ": 1106,
      "بَلُ": 1107,
      "هَةِ": 1108,
      "رَحِمَهُ": 1109,
      "كَافِ": 1110,
      "مَسْأَلَ": 1111,
      "حَقُّ": 1112,
      "الثَّانِي": 1113,
      "عَةٌ": 1114,
      "وَغَيْرِهِ": 1115,
      "كْرِ": 1116,
      "الْغَا": 1117,
      "ثَةِ": 1118,
      "كِرَ": 1119,
      "زَمَ": 1120,
      "مُنْ": 1121,
      "مِثْلُ": 1122,
      "وَبَيْنَ": 1123,
      "يَجْ": 1124,
      "بْنَ": 1125,
      "رَأَيْ": 1126,
      "رَسُولُ": 1127,
      "الْعَقْدِ": 1128,
      "عَنِ": 1129,
      "لَيْنِ": 1130,
      "تَسْ": 1131,
      "الْأَمْ": 1132,
      "رَقَ": 1133,
      "هِمْ": 1134,
      "كَيْ": 1135,
      "دَخَلَ": 1136,
      "دِهِمَا": 1137,
      "قَطْ": 1138,
      "الصِّ": 1139,
      "لَفْ": 1140,
      "قَبْلَهُ": 1141,
      "وَلَهُ": 1142,
      "يُصَ": 1143,
      "وَأَنْ": 1144,
      "أَكْثَرَ": 1145,
      "الْجَا": 1146,
      "صِحَّ": 1147,
      "يَةُ": 1148,
      "ضَاءِ": 1149,
      "عِلْ": 1150,
      "بِمَنْ": 1151,
      "النَّبِي": 1152,
      "رِوَا": 1153,
      "إحْ": 1154,
      "ُّلُ": 1155,
      "يَقُو": 1156,
      "كَسْ": 1157,
      "أَلَةِ": 1158,
      "يَكْ": 1159,
      "حَمْ": 1160,
      "طْلَا": 1161,
      "يُؤْ": 1162,
      "نِّي": 1163,
      "فَهُ": 1164,
      "عَةً": 1165,
      "رْبِ": 1166,
      "الْمَجْ": 1167,
      "رَجَعَ": 1168,
      "ضٌ": 1169,
      "نَصِي": 1170,
      "وَارِ": 1171,
      "سَبْ": 1172,
      "سِمِ": 1173,
      "أَرَادَ": 1174,
      "يَقُولُ": 1175,
      "السِّ": 1176,
      "وَصِي": 1177,
      "الدَّيْنِ": 1178,
      "لَةُ": 1179,
      "الْغُ": 1180,
      "فَعَلَ": 1181,
      "هٍ": 1182,
      "عَامِ": 1183,
      "رَتْ": 1184,
      "الْإِمَامِ": 1185,
      "عَادَ": 1186,
      "عَمَ": 1187,
      "احْ": 1188,
      "صَلَ": 1189,
      "مِينَ": 1190,
      "طٍ": 1191,
      "الْفُ": 1192,
      "لِفُ": 1193,
      "لُوا": 1194,
      "يَلْزَمُهُ": 1195,
      "كَاتَ": 1196,
      "يَّنَ": 1197,
      "الرَّجُ": 1198,
      "عِيُّ": 1199,
      "دَفْ": 1200,
      "بَيْعِ": 1201,
      "سَهْ": 1202,
      "أَحَدِهِمَا": 1203,
      "الصُّ": 1204,
      "وَطْ": 1205,
      "لِهَا": 1206,
      "ذُكِرَ": 1207,
      "لَكَ": 1208,
      "الْمُعْتَ": 1209,
      "دِيَ": 1210,
      "وَعَلَيْهِ": 1211,
      "رَبِّ": 1212,
      "ثَوْ": 1213,
      "قُهُ": 1214,
      "شَهِ": 1215,
      "الْقَاسِمِ": 1216,
      "ثَبَتَ": 1217,
      "مَّنْ": 1218,
      "السَّا": 1219,
      "مَّةِ": 1220,
      "مِلُ": 1221,
      "حَنِي": 1222,
      "لَةَ": 1223,
      "نِيُّ": 1224,
      "فَسَ": 1225,
      "َّاهِ": 1226,
      "قَدْرِ": 1227,
      "فَي": 1228,
      "ثَمَ": 1229,
      "يُقَالُ": 1230,
      "صَرَّ": 1231,
      "يُحْ": 1232,
      "فَاسِ": 1233,
      "مَثَ": 1234,
      "قِيمَةِ": 1235,
      "أُجْ": 1236,
      "حَنِيفَةَ": 1237,
      "الْكِتَا": 1238,
      "رَاجِ": 1239,
      "بِالْإِ": 1240,
      "سَهُ": 1241,
      "الْمُصَنِّفِ": 1242,
      "الْمَرْأَ": 1243,
      "بَيَا": 1244,
      "طَرِي": 1245,
      "أَبِيهِ": 1246,
      "عَدَمُ": 1247,
      "الدَّا": 1248,
      "الثَّمَنِ": 1249,
      "وَاَللَّ": 1250,
      "الْأَرْضِ": 1251,
      "الْمَذْكُو": 1252,
      "هَي": 1253,
      "نَعُ": 1254,
      "تِلْ": 1255,
      "مَكَّ": 1256,
      "نَبِي": 1257,
      "عَلَيْهِمْ": 1258,
      "أَبْ": 1259,
      "ظْهَرُ": 1260,
      "يَثْبُ": 1261,
      "بِالتَّ": 1262,
      "رَاهِ": 1263,
      "هَرَ": 1264,
      "قُلْت": 1265,
      "بِتَ": 1266,
      "فَرَّ": 1267,
      "سْتَأْ": 1268,
      "وَجْهُ": 1269,
      "مَالِكٌ": 1270,
      "مَاءِ": 1271,
      "دِرْهَمٍ": 1272,
      "عَلَيَّ": 1273,
      "جَعْ": 1274,
      "جَاءَ": 1275,
      "كِنُ": 1276,
      "لِّي": 1277,
      "الْفِ": 1278,
      "لِيِّ": 1279,
      "بِقَ": 1280,
      "تَانِ": 1281,
      "وَالتَّ": 1282,
      "الثُّلُ": 1283,
      "الْهِ": 1284,
      "لِعَدَمِ": 1285,
      "الْمُدَ": 1286,
      "كْرَهُ": 1287,
      "بَائِ": 1288,
      "مُتَعَ": 1289,
      "دَعْ": 1290,
      "الْمَشْ": 1291,
      "تْهُ": 1292,
      "مُحَمَّدُ": 1293,
      "رَسُولَ": 1294,
      "الْبَيْعِ": 1295,
      "بَاعَ": 1296,
      "ًي": 1297,
      "أَخْبَرَنَا": 1298,
      "مَثَلًا": 1299,
      "رَدَّ": 1300,
      "سَعِي": 1301,
      "نْثَ": 1302,
      "يَدِهِ": 1303,
      "أَعْلَمُ": 1304,
      "ثًا": 1305,
      "مَقْ": 1306,
      "الْخَا": 1307,
      "فَلَيْسَ": 1308,
      "حَدِيثِ": 1309,
      "جَرَّ": 1310,
      "شَرْطِ": 1311,
      "الْمَتْ": 1312,
      "بَابِ": 1313,
      "وَكِّ": 1314,
      "تَأَمَّ": 1315,
      "تِلْكَ": 1316,
      "رَكْ": 1317,
      "تُّ": 1318,
      "بَعْضُهُمْ": 1319,
      "يُسَ": 1320,
      "نِكَا": 1321,
      "قَي": 1322,
      "انْتِ": 1323,
      "يَلْزَمُ": 1324,
      "صَوْ": 1325,
      "َّةٍ": 1326,
      "فِعْلِ": 1327,
      "بَةٍ": 1328,
      "ظَاهِرٌ": 1329,
      "تَلَ": 1330,
      "كِهِ": 1331,
      "الطَّلَا": 1332,
      "جٍ": 1333,
      "شَهْ": 1334,
      "لاَ": 1335,
      "الدُّ": 1336,
      "هَبِ": 1337,
      "بَطَلَ": 1338,
      "دَّعِي": 1339,
      "لِيُّ": 1340,
      "ثْنَا": 1341,
      "فَعُ": 1342,
      "حِلُّ": 1343,
      "شَّ": 1344,
      "الذَّ": 1345,
      "سْلَامِ": 1346,
      "مَيِّ": 1347,
      "الْمَيِّ": 1348,
      "كَثِي": 1349,
      "مُؤَ": 1350,
      "ثٍ": 1351,
      "يَشْ": 1352,
      "رُمُ": 1353,
      "الْعِتْ": 1354,
      "انْتَ": 1355,
      "نَعَ": 1356,
      "لِإِ": 1357,
      "بُدَّ": 1358,
      "َّةٌ": 1359,
      "الْإِمَامُ": 1360,
      "ظِي": 1361,
      "عَلِمَ": 1362,
      "الْمُتَ": 1363,
      "مِثْلُهُ": 1364,
      "مَوْضِ": 1365,
      "نَفَقَ": 1366,
      "يُعَ": 1367,
      "شْتَرَطُ": 1368,
      "الْمَقْ": 1369,
      "ظَاهِرُ": 1370,
      "الْآخَرِ": 1371,
      "خَّ": 1372,
      "خَذُ": 1373,
      "بَرِ": 1374,
      "وُقُو": 1375,
      "يُفْ": 1376,
      "وَتُ": 1377,
      "طَلَّ": 1378,
      "لِمُ": 1379,
      "الرَّوْ": 1380,
      "هَدْ": 1381,
      "تَأَمَّلْ": 1382,
      "صِّ": 1383,
      "تِيَا": 1384,
      "جَائِ": 1385,
      "فَلِ": 1386,
      "الشَّارِ": 1387,
      "التَّعْ": 1388,
      "يَدْخُ": 1389,
      "اللّ": 1390,
      "ضَهُ": 1391,
      "قَهَا": 1392,
      "نَافِ": 1393,
      "شَرِي": 1394,
      "زٌ": 1395,
      "فَكَانَ": 1396,
      "الْمَتْنِ": 1397,
      "مَفْ": 1398,
      "بْرَا": 1399,
      "قَةً": 1400,
      "بَكْ": 1401,
      "جِنْ": 1402,
      "أَعْتَقَ": 1403,
      "وَاَللَّهُ": 1404,
      "سِتَّ": 1405,
      "النُّ": 1406,
      "الْأَوَّلُ": 1407,
      "وَكِي": 1408,
      "زَادَ": 1409,
      "ضَةِ": 1410,
      "الزِّ": 1411,
      "فَصْ": 1412,
      "يَجِ": 1413,
      "دَةٍ": 1414,
      "دَةٌ": 1415,
      "فَتْحِ": 1416,
      "وَنَحْوِهِ": 1417,
      "مَّي": 1418,
      "لَمَّا": 1419,
      "هَبُ": 1420,
      "تٌ": 1421,
      "أَبَ": 1422,
      "يَةٌ": 1423,
      "النِّكَا": 1424,
      "بَتِهِ": 1425,
      "حِصَّ": 1426,
      "حَاجَ": 1427,
      "وَالث": 1428,
      "فَوْ": 1429,
      "مُعَيَّ": 1430,
      "وَاجِ": 1431,
      "رِيُّ": 1432,
      "خَالِ": 1433,
      "سٌ": 1434,
      "دَاءِ": 1435,
      "يَّةِ": 1436,
      "عِشْ": 1437,
      "عَنْهَا": 1438,
      "لَكِ": 1439,
      "الْحَاكِ": 1440,
      "لَةٍ": 1441,
      "يَقْتَ": 1442,
      "حَرَّ": 1443,
      "قُطُ": 1444,
      "رُونَ": 1445,
      "وَالْإِ": 1446,
      "جَمِيعِ": 1447,
      "رَوَاهُ": 1448,
      "صْرِ": 1449,
      "يُعْتَ": 1450,
      "عُمْ": 1451,
      "يُوسُ": 1452,
      "كٍ": 1453,
      "أَدْ": 1454,
      "الْمَوْلَي": 1455,
      "بِسَ": 1456,
      "دَلِي": 1457,
      "جَمْ": 1458,
      "جِدِ": 1459,
      "وِلَا": 1460,
      "الْوَلَدِ": 1461,
      "بَنِي": 1462,
      "آخِ": 1463,
      "وُضُو": 1464,
      "مِلْكِهِ": 1465,
      "مِمَّنْ": 1466,
      "الْأَصَح": 1467,
      "رٌّ": 1468,
      "الشِّ": 1469,
      "الصَّلَاةِ": 1470,
      "لِتَ": 1471,
      "مُعَا": 1472,
      "يَذْ": 1473,
      "رِيِّ": 1474,
      "وَعَنْ": 1475,
      "رَيْنِ": 1476,
      "اعْتِبَا": 1477,
      "حَةِ": 1478,
      "كَأَنْ": 1479,
      "نْظُ": 1480,
      "فَيَكُونُ": 1481,
      "السَّيِّ": 1482,
      "حًا": 1483,
      "يَةَ": 1484,
      "مُتَّ": 1485,
      "يَقَ": 1486,
      "صِيرُ": 1487,
      "سًا": 1488,
      "تَمْ": 1489,
      "الْعَيْ": 1490,
      "شَيْءَ": 1491,
      "لِقَوْلِهِ": 1492,
      "حَهُ": 1493,
      "وُجُوبِ": 1494,
      "يَنْبَغِي": 1495,
      "الْعَبْدُ": 1496,
      "لَةً": 1497,
      "الْأَجْ": 1498,
      "قُلْنَا": 1499,
      "يَمْلِكُ": 1500,
      "ؤُهُ": 1501,
      "بَةً": 1502,
      "رَبُ": 1503,
      "مَانُ": 1504,
      "زِلَةِ": 1505,
      "لٌّ": 1506,
      "خَلْ": 1507,
      "يُوسُفَ": 1508,
      "لَهُمَا": 1509,
      "إقْرَا": 1510,
      "إِسْ": 1511,
      "سِّ": 1512,
      "قَةٍ": 1513,
      "لْحَ": 1514,
      "بِضَ": 1515,
      "كُهُ": 1516,
      "لَزِمَهُ": 1517,
      "ثٌ": 1518,
      "نّ": 1519,
      "مَامِ": 1520,
      "مَأْ": 1521,
      "ابْنَ": 1522,
      "مُسْلِمٍ": 1523,
      "الْمَبِي": 1524,
      "ئِلَ": 1525,
      "نِينَ": 1526,
      "الرَّحْ": 1527,
      "عِبَارَةُ": 1528,
      "ولَي": 1529,
      "تِرَا": 1530,
      "الْمُصَنِّفُ": 1531,
      "مَذْ": 1532,
      "جَرَ": 1533,
      "طَلَا": 1534,
      "لَامُ": 1535,
      "يَرْجِعُ": 1536,
      "وِيَ": 1537,
      "وَفِيهِ": 1538,
      "الْأَعْ": 1539,
      "ثْنَ": 1540,
      "شَارَ": 1541,
      "نِصْفَ": 1542,
      "نْثَي": 1543,
      "نِيِّ": 1544,
      "وَنَحْ": 1545,
      "قِسْ": 1546,
      "حَاصِ": 1547,
      "أُخْرَي": 1548,
      "الْمُنْ": 1549,
      "يَي": 1550,
      "سْتُ": 1551,
      "بَكْرٍ": 1552,
      "وَغَيْرُهُ": 1553,
      "قَوْلَهُ": 1554,
      "جِنَا": 1555,
      "صَالِ": 1556,
      "طُلُ": 1557,
      "أَصْحَا": 1558,
      "الْحُكْمِ": 1559,
      "تِلَا": 1560,
      "سَأَ": 1561,
      "اسْتِي": 1562,
      "فَهَلْ": 1563,
      "فَال": 1564,
      "عُرْ": 1565,
      "جَعَلَ": 1566,
      "طٌ": 1567,
      "مُدَّ": 1568,
      "تَبْ": 1569,
      "أَبَا": 1570,
      "مَرُ": 1571,
      "كَلَامِهِ": 1572,
      "الْأَصْلِ": 1573,
      "زَيْدٍ": 1574,
      "النَّبِيِّ": 1575,
      "إنَّهُ": 1576,
      "الْمَأْ": 1577,
      "الْيَمِي": 1578,
      "الْمُؤَ": 1579,
      "الذِّ": 1580,
      "عَقِ": 1581,
      "عُذْ": 1582,
      "بَيْعُ": 1583,
      "يَخْرُ": 1584,
      "فَمَا": 1585,
      "طَالِقٌ": 1586,
      "بَقَا": 1587,
      "غَيْرِهَا": 1588,
      "فُلَانٍ": 1589,
      "سُّ": 1590,
      "الط": 1591,
      "الْوَجْ": 1592,
      "وُّ": 1593,
      "طَالَ": 1594,
      "عَبَّا": 1595,
      "تَرَكَ": 1596,
      "رَتِهِ": 1597,
      "أَسْلَمَ": 1598,
      "اتِّ": 1599,
      "فَرِ": 1600,
      "خُرُو": 1601,
      "يُمْكِنُ": 1602,
      "عَتَقَ": 1603,
      "بِرَ": 1604,
      "أَحْمَدُ": 1605,
      "صَرَّحَ": 1606,
      "كُونَ": 1607,
      "يَوْمِ": 1608,
      "عَائِ": 1609,
      "مَةٍ": 1610,
      "دُلُّ": 1611,
      "اشْتَرَي": 1612,
      "مُعْتَ": 1613,
      "لِلتَّ": 1614,
      "بِمَنْزِلَةِ": 1615,
      "رُدَّ": 1616,
      "عِيِّ": 1617,
      "صٍ": 1618,
      "الْيَ": 1619,
      "بْهَ": 1620,
      "يُسْتَ": 1621,
      "الْحَجِّ": 1622,
      "بَلَغَ": 1623,
      "لَيْهِ": 1624,
      "وَرِ": 1625,
      "مَيْ": 1626,
      "جِدَ": 1627,
      "كْثَ": 1628,
      "الرَّحْمَنِ": 1629,
      "يَحْيَي": 1630,
      "يَضْمَنُ": 1631,
      "فَائِ": 1632,
      "قُرْ": 1633,
      "رُوِيَ": 1634,
      "مَلِ": 1635,
      "فَهِيَ": 1636,
      "حَج": 1637,
      "سُهُ": 1638,
      "كَلَ": 1639,
      "جَارَةِ": 1640,
      "مَشْ": 1641,
      "حَلَّ": 1642,
      "دِهَا": 1643,
      "دُخُو": 1644,
      "لَةٌ": 1645,
      "عَلْ": 1646,
      "الْوَكِي": 1647,
      "وَاحِدٌ": 1648,
      "أَشْهُ": 1649,
      "الثَّانِيَ": 1650,
      "نْظُرْ": 1651,
      "حَقِّهِ": 1652,
      "تَمَ": 1653,
      "نَوْ": 1654,
      "جَمَا": 1655,
      "صَدَّ": 1656,
      "الْعَيْنِ": 1657,
      "حْرَا": 1658,
      "تَقْدِي": 1659,
      "الصَّحِي": 1660,
      "مِثْلِهِ": 1661,
      "..": 1662,
      "لُهَا": 1663,
      "رَجُلًا": 1664,
      "قَابِ": 1665,
      "مَعْلُو": 1666,
      "لِذَلِكَ": 1667,
      "حَرْ": 1668,
      "مَوْتِهِ": 1669,
      "الْجَوَا": 1670,
      "دَفَعَ": 1671,
      "يُرِي": 1672,
      "بَاطِ": 1673,
      "رْتَهِ": 1674,
      "َّةً": 1675,
      "يَقُولَ": 1676,
      "حَدَ": 1677,
      "الْحَدِي": 1678,
      "مَهْ": 1679,
      "يَةٍ": 1680,
      "غَيْرَهُ": 1681,
      "شَهِدَ": 1682,
      "أَيَّا": 1683,
      "إِذَا": 1684,
      "ثَمَّ": 1685,
      "قَدَ": 1686,
      "أَوْصَي": 1687,
      "الْإِسْلَامِ": 1688,
      "الزَّوْجَ": 1689,
      "نَظَرٌ": 1690,
      "وَسُ": 1691,
      "الْمَحْ": 1692,
      "وَيَنْ": 1693,
      "أَقَلَّ": 1694,
      "وَلِلْ": 1695,
      "وَلِأَنَّ": 1696,
      "نَةَ": 1697,
      "بْحِ": 1698,
      "يُسْ": 1699,
      "قَائِ": 1700,
      "الثَّلَا": 1701,
      "مِائَةٍ": 1702,
      "عَوْ": 1703,
      "الْأُولَي": 1704,
      "الْجُمُ": 1705,
      "الْعِلْ": 1706,
      "يَأْخُذُ": 1707,
      "بِنَفْسِهِ": 1708,
      "بَعْضَ": 1709,
      "أَحَدٌ": 1710,
      "ظَهَرَ": 1711,
      "وَعِنْدَ": 1712,
      "دَارِ": 1713,
      "خِلَافًا": 1714,
      "وَبَ": 1715,
      "فَعَلَيْهِ": 1716,
      "الْحَسَ": 1717,
      "الْمُدَوَّ": 1718,
      "بِسَبَ": 1719,
      "وَافِ": 1720,
      "دَي": 1721,
      "يُقَ": 1722,
      "لِأَ": 1723,
      "جَوَازِ": 1724,
      "رِثُ": 1725,
      "لَّذِي": 1726,
      "كُلٍّ": 1727,
      "حَالَ": 1728,
      "وَبِهِ": 1729,
      "حِقُّ": 1730,
      "الْوَطْ": 1731,
      "الْمَسْجِدِ": 1732,
      "النَّاسِ": 1733,
      "سم": 1734,
      "وَلَكِنْ": 1735,
      "آخَرُ": 1736,
      "رَسُولِ": 1737,
      "مَسْأَلَةٌ": 1738,
      "صَرَ": 1739,
      "كَوْنِهِ": 1740,
      "أُمَّ": 1741,
      "مَكَّةَ": 1742,
      "عَبَّاسٍ": 1743,
      "عَلُ": 1744,
      "ضِهِ": 1745,
      "ادَّعَي": 1746,
      "كَهُ": 1747,
      "أَوْلَا": 1748,
      "لِكَوْ": 1749,
      "صِفَ": 1750,
      "ذِمَّ": 1751,
      "مَنَ": 1752,
      "عِدَّ": 1753,
      "صَاحِبُ": 1754,
      "بِلَ": 1755,
      "حَالِ": 1756,
      "وَحْ": 1757,
      "الْمِثْلِ": 1758,
      "بِالْمُ": 1759,
      "كَلَّ": 1760,
      "رَاهُ": 1761,
      "بِالْأَ": 1762,
      "وَأَنَّ": 1763,
      "حَدَّثَنِي": 1764,
      "تَزَوَّجَ": 1765,
      "لَّةِ": 1766,
      "عَرَفَةَ": 1767,
      "اخْتَ": 1768,
      "رِهَا": 1769,
      "فَاءِ": 1770,
      "وَاحِدَةٍ": 1771,
      "قَرَّ": 1772,
      "نِصْفُ": 1773,
      "قِيمَتِهِ": 1774,
      "نِصْفِ": 1775,
      "بِإِذْ": 1776,
      "الْمَيِّتِ": 1777,
      "إِلَّا": 1778,
      "وُجُودِ": 1779,
      "فَصْلٌ": 1780,
      "أَصَا": 1781,
      "الْمِ": 1782,
      "شَيْخُ": 1783,
      "الْمَوْتِ": 1784,
      "الْقِيَا": 1785,
      "لِنَفْسِهِ": 1786,
      "بَةٌ": 1787,
      "يُحَ": 1788,
      "غَرَ": 1789,
      "يَثْبُتُ": 1790,
      "كٌ": 1791,
      "عَشْ": 1792,
      "بِشَيْءٍ": 1793,
      "تَوْ": 1794,
      "يَجُزْ": 1795,
      "كَنَ": 1796,
      "الْمُدَوَّنَةِ": 1797,
      "تُقْ": 1798,
      "مٍّ": 1799,
      "يَقْتَضِي": 1800,
      "مَتْ": 1801,
      "مَاعِ": 1802,
      "لَانِ": 1803,
      "جَابَ": 1804,
      "الْكُ": 1805,
      "حُرْ": 1806,
      "قَاتِ": 1807,
      "الْبَائِعِ": 1808,
      "َّاهِرُ": 1809,
      "الْخِيَا": 1810,
      "حُكْمَ": 1811,
      "مَمْ": 1812,
      "يُشْتَرَطُ": 1813,
      "جَهُ": 1814,
      "الْحَمْ": 1815,
      "أَحَدِ": 1816,
      "مَةٌ": 1817,
      "سَقَطَ": 1818,
      "عِينَ": 1819,
      "يَذْكُ": 1820,
      "يَغْ": 1821,
      "تَخْ": 1822,
      "ضَمِنَ": 1823,
      "فَلْيُ": 1824,
      "انْتَهَي": 1825,
      "يَضُ": 1826,
      "إلَيْ": 1827,
      "لِغَيْرِهِ": 1828,
      "عُلِمَ": 1829,
      "الرَّهْ": 1830,
      "يَحْنَ": 1831,
      "قَيْ": 1832,
      "قَبَ": 1833,
      "قَضَا": 1834,
      "يَصْ": 1835,
      "قَةٌ": 1836,
      "قَالَتْ": 1837,
      "ذْرَ": 1838,
      "أَجْنَبِي": 1839,
      "يَوْمٍ": 1840,
      "وَذَكَرَ": 1841,
      "يَدَ": 1842,
      "طِئَ": 1843,
      "وَالْأَ": 1844,
      "تَنْبِي": 1845,
      "كَانِ": 1846,
      "الْوَرَ": 1847,
      "الْمَاءِ": 1848,
      "مَةً": 1849,
      "تَكْ": 1850,
      "تَصْ": 1851,
      "ذِكْ": 1852,
      "عَائِشَ": 1853,
      "وَةِ": 1854,
      "صَيْ": 1855,
      "الزَّرْ": 1856,
      "بَيِّ": 1857,
      "حُرٌّ": 1858,
      "شَهَادَ": 1859,
      "كُلٌّ": 1860,
      "ِيَةِ": 1861,
      "كَأَنَّهُ": 1862,
      "الْمُسْلِمِينَ": 1863,
      "النَّبِيَّ": 1864,
      "تَحْتَ": 1865,
      "إِنَّ": 1866,
      "قَصْ": 1867,
      "يَزِي": 1868,
      "فَرٍ": 1869,
      "ضَتْ": 1870,
      "الزَّوْجِ": 1871,
      "لْتَ": 1872,
      "جْتَ": 1873,
      "يَانِ": 1874,
      "كَلَامُ": 1875,
      "أَفْضَ": 1876,
      "الْقُرْ": 1877,
      "قَبُو": 1878,
      "يَنْتَ": 1879,
      "الْمَسْأَلَةِ": 1880,
      "الْأَبِ": 1881,
      "كًا": 1882,
      "طَرَ": 1883,
      "لِيُ": 1884,
      "وَجْهَ": 1885,
      "قَطَعَ": 1886,
      "جْرِ": 1887,
      "نِيَّةِ": 1888,
      "اسْتِحْ": 1889,
      "الْأَصَحِّ": 1890,
      "لَّهِ": 1891,
      "لِلْإِ": 1892,
      "زِئُ": 1893,
      "ثُبُو": 1894,
      "بِعَيْنِ": 1895,
      "صَاحِبِهِ": 1896,
      "وَجْهٍ": 1897,
      "هُرَيْ": 1898,
      "حَاقَ": 1899,
      "هُرَيْرَةَ": 1900,
      "اثْنَ": 1901,
      "حُو": 1902,
      "عَمَّا": 1903,
      "عْتَا": 1904,
      "نَفْسِ": 1905,
      "الثَّوْ": 1906,
      "شَرَطَ": 1907,
      "وَاحِدَةً": 1908,
      "هَدَ": 1909,
      "صِحَّةِ": 1910,
      "نَصَّ": 1911,
      "رٍّ": 1912,
      "النِّصْ": 1913,
      "عَيْنِ": 1914,
      "وِيُّ": 1915,
      "يَتْ": 1916,
      "دَبَّ": 1917,
      "خْتَا": 1918,
      "يَحْصُ": 1919,
      "وَشَ": 1920,
      "الْمِلْكِ": 1921,
      "بَانَ": 1922,
      "غَلَ": 1923,
      "بَيْنَهُ": 1924,
      "دِّي": 1925,
      "أَخْرَجَ": 1926,
      "تًا": 1927,
      "حَصَلَ": 1928,
      "رِفَ": 1929,
      "كَرِ": 1930,
      "دَةً": 1931,
      "بَأْ": 1932,
      "وَجْهِ": 1933,
      "وَجَدَ": 1934,
      "كَيْفَ": 1935,
      "أَشْهُرٍ": 1936,
      "اتَّ": 1937,
      "بِمَ": 1938,
      "عِوَ": 1939,
      "ضَانَ": 1940,
      "رِثِ": 1941,
      "وَلَدٍ": 1942,
      "الْبَيْعُ": 1943,
      "الْوَقْفِ": 1944,
      "سْتَأْجِ": 1945,
      "شَيْخُنَا": 1946,
      "فَسْ": 1947,
      "سَبِ": 1948,
      "سَمَّي": 1949,
      "رُهَا": 1950,
      "عَدْ": 1951,
      "مُرَا": 1952,
      "يُخْ": 1953,
      "شٍ": 1954,
      "سَي": 1955,
      "تِدَا": 1956,
      "شَخْ": 1957,
      "طْلُ": 1958,
      "أَحَدٍ": 1959,
      "أَوَّلِ": 1960,
      "الْأَنْ": 1961,
      "عَهَا": 1962,
      "رُجُو": 1963,
      "مِثْلَ": 1964,
      "دَّي": 1965,
      "الطَّلَاقِ": 1966,
      "يَقَعُ": 1967,
      "نَهَا": 1968,
      "الشَّافِ": 1969,
      "وَأَخْ": 1970,
      "الْإِقْرَا": 1971,
      "مُتَعَلِّ": 1972,
      "يَحْتَ": 1973,
      "صَاحِبِ": 1974,
      "زٍ": 1975,
      "مّ": 1976,
      "خَالَفَ": 1977,
      "مُسْلِمٌ": 1978,
      "مَحَلِّ": 1979,
      "لِكُلِّ": 1980,
      "تَيْ": 1981,
      "كَفَّا": 1982,
      "تُمْ": 1983,
      "حِهِ": 1984,
      "كُلُّهُ": 1985,
      "جِهَةِ": 1986,
      "عَلَّقُ": 1987,
      "احْتِ": 1988,
      "تَنْبِيهٌ": 1989,
      "حَقِي": 1990,
      "يُشْ": 1991,
      "وَالسَّ": 1992,
      "بِيَدِهِ": 1993,
      "كَرَ": 1994,
      "حْتَمَلُ": 1995,
      "مَعُ": 1996,
      "بَحَ": 1997,
      "ثَمَا": 1998,
      "النَّفْ": 1999,
      "الْأَخْ": 2000,
      "الْإِنْ": 2001,
      "بَتْ": 2002,
      "الْمُكَاتَ": 2003,
      "أَحَدَ": 2004,
      "قَيَّ": 2005,
      "نَوَي": 2006,
      "التَّصَ": 2007,
      "الْمُعْتَمَ": 2008,
      "يُرِيدُ": 2009,
      "بَهَ": 2010,
      "جِهَا": 2011,
      "عَبْدٍ": 2012,
      "قَةُ": 2013,
      "وَلَدَتْ": 2014,
      "وَهَ": 2015,
      "فَاعِ": 2016,
      "وَلَدِهِ": 2017,
      "نُوا": 2018,
      "ظَاهِرُهُ": 2019,
      "الْمَشْهُو": 2020,
      "رَّا": 2021,
      "وُجِدَ": 2022,
      "يَتَوَ": 2023,
      "فَفِي": 2024,
      "التَّا": 2025,
      "مَوْتِ": 2026,
      "مَيْنِ": 2027,
      "عُبَيْ": 2028,
      "ذَكَرْ": 2029,
      "جُمْ": 2030,
      "تَنِ": 2031,
      "طًا": 2032,
      "عَبْدًا": 2033,
      "اقْتَ": 2034,
      "بِشَرْطِ": 2035,
      "عِنْ": 2036,
      "فِيهِمَا": 2037,
      "وَضْ": 2038,
      "يَدُلُّ": 2039,
      "إسْ": 2040,
      "الْأَشْ": 2041,
      "ته": 2042,
      "وَقْتَ": 2043,
      "نَّةِ": 2044,
      "حَلُّ": 2045,
      "إخْ": 2046,
      "عُمَرُ": 2047,
      "قِيمَةُ": 2048,
      "الْمَذْهَبِ": 2049,
      "نًي": 2050,
      "َيْنِ": 2051,
      "وَالْمَ": 2052,
      "ثِهِ": 2053,
      "رَفْ": 2054,
      "رَقِي": 2055,
      "يَصِحَّ": 2056,
      "مَالٌ": 2057,
      "وَاسْتَ": 2058,
      "حُجَّ": 2059,
      "دَيْنٍ": 2060,
      "تَهَا": 2061,
      "مَالٍ": 2062,
      "أَخْذُ": 2063,
      "الثُّلُثِ": 2064,
      "اعْتَ": 2065,
      "وَلِأَنَّهُ": 2066,
      "عَطْ": 2067,
      "يُوجَ": 2068,
      "سَمِعْتُ": 2069,
      "لَحَ": 2070,
      "أَشَارَ": 2071,
      "رَائِ": 2072,
      "اللَّهَ": 2073,
      "لْزَمُهُ": 2074,
      "الْمَغْ": 2075,
      "بَأْسَ": 2076,
      "اشْ": 2077,
      "الْقِسْ": 2078,
      "وَصَ": 2079,
      "الْهَ": 2080,
      "مُونَ": 2081,
      "وَعَنْهُ": 2082,
      "بِهَذَا": 2083,
      "قَرِي": 2084,
      "يَشْتَ": 2085,
      "ذَهَبَ": 2086,
      "الْمُرَادُ": 2087,
      "رٍو": 2088,
      "ذِنَ": 2089,
      "وَالنَّ": 2090,
      "صُولِ": 2091,
      "عَمْرٍو": 2092,
      "أَحْمَدَ": 2093,
      "الْعِتْقِ": 2094,
      "النِّكَاحِ": 2095,
      "دَرَاهِ": 2096,
      "عِشْرِينَ": 2097,
      "بَاعَهُ": 2098,
      "طَعُ": 2099,
      "كُّ": 2100,
      "لَاءِ": 2101,
      "قَالُوا": 2102,
      "تِسْ": 2103,
      "تِنَا": 2104,
      "مِيِّ": 2105,
      "غَالِ": 2106,
      "الرُّجُو": 2107,
      "تَرَ": 2108,
      "بَيْتِ": 2109,
      "يَظْهَرُ": 2110,
      "كَامِ": 2111,
      "جَرَّدِ": 2112,
      "فَعَلَي": 2113,
      "لَاهُ": 2114,
      "الْأُمِّ": 2115,
      "تَعْلِي": 2116,
      "الْوَقْتِ": 2117,
      "الْمَعْنَي": 2118,
      "وَطِئَ": 2119,
      "يَعْتَ": 2120,
      "وَأَنَّهُ": 2121,
      "طَّا": 2122,
      "خَيَّ": 2123,
      "طْلَقَ": 2124,
      "الْمَسْأَلَ": 2125,
      "عَائِشَةَ": 2126,
      "نَزَ": 2127,
      "فَرْعٌ": 2128,
      "الْوَاقِ": 2129,
      "أَوَّلًا": 2130,
      "لِغَيْرِ": 2131,
      "حُرِّ": 2132,
      "سُفْ": 2133,
      "النَّظَ": 2134,
      "وَابْنُ": 2135,
      "جَهْ": 2136,
      "يُونُ": 2137,
      "مَرَّةً": 2138,
      "أَجَ": 2139,
      "بِمَعْنَي": 2140,
      "تَكُنْ": 2141,
      "الْأَذْرَ": 2142,
      "مَعْنَاهُ": 2143,
      "مَسْأَلَةِ": 2144,
      "بِالْعَ": 2145,
      "مِّي": 2146,
      "اُسْتُ": 2147,
      "بِحَيْثُ": 2148,
      "الْعِلْمِ": 2149,
      "وَهَلْ": 2150,
      "بَهَا": 2151,
      "قَوْلَ": 2152,
      "سُئِلَ": 2153,
      "الْجِنَا": 2154,
      "خَوْ": 2155,
      "طَلْ": 2156,
      "مُحَمَّدِ": 2157,
      "وَقْتِ": 2158,
      "الْخِ": 2159,
      "َّانِي": 2160,
      "فَيَنْ": 2161,
      "أَخَ": 2162,
      "نَسَ": 2163,
      "فَأَنْ": 2164,
      "اُنْظُرْ": 2165,
      "أَخَذَهُ": 2166,
      "مُبَا": 2167,
      "نَائِ": 2168,
      "الْبَائِعُ": 2169,
      "الْغَاصِ": 2170,
      "إي": 2171,
      "بِدُو": 2172,
      "بِقَدْرِ": 2173,
      "فَضْ": 2174,
      "جَائِزٌ": 2175,
      "فِيَ": 2176,
      "رِجْ": 2177,
      "يُدْ": 2178,
      "يَمْنَعُ": 2179,
      "عَلِيٍّ": 2180,
      "يَمُّ": 2181,
      "سَعْ": 2182,
      "صَغِي": 2183,
      "الْحَالِ": 2184,
      "ذُّ": 2185,
      "لِسِ": 2186,
      "خَبَرِ": 2187,
      "الْبَيِّنَ": 2188,
      "الْمُرْتَهِ": 2189,
      "عِتْقِ": 2190,
      "يَأْخُذَ": 2191,
      "فَمَنْ": 2192,
      "رَّرَ": 2193,
      "يَوْمًا": 2194,
      "فَلَمَّا": 2195,
      "بَيَّ": 2196,
      "عِهَا": 2197,
      "التَّوْ": 2198,
      "أَكْثَرُ": 2199,
      "الزَّوْجُ": 2200,
      "الْمَرْأَةِ": 2201,
      "لًّا": 2202,
      "وَدَ": 2203,
      "بِأَلْ": 2204,
      "حَي": 2205,
      "النَّقْ": 2206,
      "سَيِّدِهِ": 2207,
      "رِبَ": 2208,
      "فْظِ": 2209,
      "أَجْزَا": 2210,
      "جٌ": 2211,
      "قَلَ": 2212,
      "يُكْرَهُ": 2213,
      "الْأَسْ": 2214,
      "قِيمَتُهُ": 2215,
      "سُفْيَا": 2216,
      "خِّ": 2217,
      "أَرَأَيْ": 2218,
      "بِفَتْحِ": 2219,
      "خَطَا": 2220,
      "الْمَدِي": 2221,
      "سْبَةِ": 2222,
      "هَلَكَ": 2223,
      "عَلَيْهِمَا": 2224,
      "حُهُ": 2225,
      "أَتْ": 2226,
      "وَفَا": 2227,
      "وَزَ": 2228,
      "الْأَوْ": 2229,
      "قَلْ": 2230,
      "يَخْتَ": 2231,
      "كْتَ": 2232,
      "حَاكِ": 2233,
      "تَاجُ": 2234,
      "تِهِمْ": 2235,
      "الشَّهَا": 2236,
      "لَامِ": 2237,
      "حَبُّ": 2238,
      "طَعَا": 2239,
      "رَمَضَانَ": 2240,
      "فَحَ": 2241,
      "بَاقِي": 2242,
      "يَأْكُ": 2243,
      "الْحُرِّ": 2244,
      "تَصَرُّ": 2245,
      "شَاهِ": 2246,
      "الْأُخْ": 2247,
      "الْأُجْ": 2248,
      "عَلَّقَ": 2249,
      "لَزِمَ": 2250,
      "ضَاهُ": 2251,
      "زًا": 2252,
      "ِٔ": 2253,
      "الْخَمْ": 2254,
      "وْمِ": 2255,
      "رُدُّ": 2256,
      "زَّوْ": 2257,
      "عَزَّ": 2258,
      "رَضَ": 2259,
      "يَحِلُّ": 2260,
      "الْحَيْ": 2261,
      "سَلَمَةَ": 2262,
      "الْحُكْمُ": 2263,
      "الْوَصِيَّةِ": 2264,
      "تَكُونُ": 2265,
      "تَعَلُّ": 2266,
      "يَرْجِ": 2267,
      "رًّا": 2268,
      "مُخْتَ": 2269,
      "بِهِمْ": 2270,
      "ضُهُ": 2271,
      "الْحَسَنِ": 2272,
      "يُنَا": 2273,
      "الثَّالِ": 2274,
      "الرَّجُلِ": 2275,
      "إلَيْهَا": 2276,
      "تَتَ": 2277,
      "رْضِ": 2278,
      "شُبْهَ": 2279,
      "الصَّلَاةُ": 2280,
      "اخْتِلَا": 2281,
      "الْقَبْضِ": 2282,
      "بِرُ": 2283,
      "تَصِحُّ": 2284,
      "وَاتِ": 2285,
      "دِينَا": 2286,
      "أَجْلِ": 2287,
      "النَّبِيُّ": 2288,
      "ينَ": 2289,
      "أَلَا": 2290,
      "قَتَ": 2291,
      "رَبُّ": 2292,
      "فَكَذَلِكَ": 2293,
      "بِنَاءِ": 2294,
      "يُؤْخَذُ": 2295,
      "اعْتِبَارِ": 2296,
      "أَفْضَلُ": 2297,
      "أَنَا": 2298,
      "ثَةُ": 2299,
      "جِهَ": 2300,
      "بِهِمَا": 2301,
      "الْفَسْ": 2302,
      "لَفْظِ": 2303,
      "لِلِ": 2304,
      "نَعْ": 2305,
      "فِيمَنْ": 2306,
      "اسْتَأْ": 2307,
      "أَصْلِ": 2308,
      "وَلِهَذَا": 2309,
      "الْوَطْءِ": 2310,
      "وَحْدَهُ": 2311,
      "صًا": 2312,
      "مَبْ": 2313,
      "رَهْ": 2314,
      "شْرِ": 2315,
      "سُنَّ": 2316,
      "يَعْتِ": 2317,
      "شُعْ": 2318,
      "سَعِيدٍ": 2319,
      "زِّ": 2320,
      "بْطِ": 2321,
      "الْأَلْ": 2322,
      "طْعِ": 2323,
      "وَأَرْ": 2324,
      "دَيْنٌ": 2325,
      "يَسْقُطُ": 2326,
      "رِكَةِ": 2327,
      "بْرَاهِي": 2328,
      "خُرُوجِ": 2329,
      "دِيُّ": 2330,
      "وَالصَّ": 2331,
      "الزُّ": 2332,
      "مُحَمَّدٌ": 2333,
      "رَهَا": 2334,
      "يَبِي": 2335,
      "نِيٌّ": 2336,
      "الْإِحْرَا": 2337,
      "يَحْرُمُ": 2338,
      "ثَابِ": 2339,
      "رَمِ": 2340,
      "انْقِ": 2341,
      "الدَّيْ": 2342,
      "تَحْرِي": 2343,
      "تَسْلِي": 2344,
      "طَرِيقِ": 2345,
      "أَيَّامٍ": 2346,
      "التِّ": 2347,
      "أَثَ": 2348,
      "وَكَّ": 2349,
      "كَمَ": 2350,
      "إمَّا": 2351,
      "فْرِ": 2352,
      "وَخَرَجَ": 2353,
      "بِالنِّ": 2354,
      "دِمَ": 2355,
      "الْمُوَكِّ": 2356,
      "رَاءَةِ": 2357,
      "الْمَبِيعِ": 2358,
      "الْأَحْ": 2359,
      "وَيَكُونُ": 2360,
      "دِّهِ": 2361,
      "خَارِ": 2362,
      "الْيَمِينِ": 2363,
      "تَجِبُ": 2364,
      "رَفُ": 2365,
      "جِبِ": 2366,
      "طَي": 2367,
      "وَأَوْ": 2368,
      "جَاسَ": 2369,
      "ذْرِ": 2370,
      "وَيَحْ": 2371,
      "صٌ": 2372,
      "لِلَّهِ": 2373,
      "كَمُ": 2374,
      "صِدْ": 2375,
      "مَوْلَي": 2376,
      "يَعْلَمْ": 2377,
      "نَحْوَ": 2378,
      "حَامِ": 2379,
      "سَبَقَ": 2380,
      "مَكْ": 2381,
      "سَيْ": 2382,
      "هَيْ": 2383,
      "عُثْ": 2384,
      "شَعْ": 2385,
      "وَأَصْ": 2386,
      "وَلَدِ": 2387,
      "وَلَكِ": 2388,
      "رُوا": 2389,
      "الْجُمُعَةِ": 2390,
      "دَرَاهِمَ": 2391,
      "الْوُضُو": 2392,
      "يَوَا": 2393,
      "جَارِيَ": 2394,
      "الْآخَرُ": 2395,
      "تِيَ": 2396,
      "جُّ": 2397,
      "وَوَجْهُ": 2398,
      "عُهَا": 2399,
      "لِلْأَ": 2400,
      "بَعِي": 2401,
      "حَرَا": 2402,
      "خِلَافُ": 2403,
      "الْأَذْرَعِيُّ": 2404,
      "وَمِثْلُهُ": 2405,
      "عَالِ": 2406,
      "عَبْدِهِ": 2407,
      "الْأَرْبَ": 2408,
      "صَحِيحٌ": 2409,
      "الْمُضَا": 2410,
      "أَنْتِ": 2411,
      "الْأَجَ": 2412,
      "دَاوُ": 2413,
      "تَرْكِ": 2414,
      "التَّصَرُّ": 2415,
      "قَصَدَ": 2416,
      "زَّا": 2417,
      "حَوْ": 2418,
      "نِيَّ": 2419,
      "مَلَكَ": 2420,
      "امْرَأَةٍ": 2421,
      "اللّهِ": 2422,
      "وَهْ": 2423,
      "الْمِلْ": 2424,
      "الرَّوْضَةِ": 2425,
      "أَيُّ": 2426,
      "الْمِي": 2427,
      "بِرِ": 2428,
      "رَوَي": 2429,
      "لَيْسَتْ": 2430,
      "نَقَصَ": 2431,
      "الرَّجُلُ": 2432,
      "وَّا": 2433,
      "وَةٍ": 2434,
      "فَسَا": 2435,
      "يُفِي": 2436,
      "يُقَالَ": 2437,
      "فَإِنَّهَا": 2438,
      "نَفْسَهُ": 2439,
      "ينِ": 2440,
      "الْكِ": 2441,
      "حَيَا": 2442,
      "رُوعِ": 2443,
      "عَدَمَ": 2444,
      "نَةٍ": 2445,
      "بَيْنِ": 2446,
      "أَذِنَ": 2447,
      "الْعَمَلِ": 2448,
      "زَالَ": 2449,
      "سَائِرِ": 2450,
      "وَرُ": 2451,
      "تَكُونَ": 2452,
      "مُهَا": 2453,
      "رِضَ": 2454,
      "بْتَ": 2455,
      "الْمُغْنِي": 2456,
      "وَلَعَلَّ": 2457,
      "كَسْرِ": 2458,
      "يَتِهِ": 2459,
      "زَكَا": 2460,
      "طِهِ": 2461,
      "قِيمَةَ": 2462,
      "دَعْوَي": 2463,
      "قَةَ": 2464,
      "تِلَ": 2465,
      "كَاتَبَ": 2466,
      "جَزَ": 2467,
      "لُونَ": 2468,
      "هَّ": 2469,
      "مُحْتَ": 2470,
      "رَانِ": 2471,
      "يُعْلَمُ": 2472,
      "الرَّوْضِ": 2473,
      "إِسْحَاقَ": 2474,
      "ونَ": 2475,
      "مُعْ": 2476,
      "الْمُفْ": 2477,
      "فَأَمَّا": 2478,
      "الْبَدَ": 2479,
      "هُنَاكَ": 2480,
      "السَّابِ": 2481,
      "الْحَاكِمُ": 2482,
      "إمَا": 2483,
      "قَاضِي": 2484,
      "الْمُدَّعِي": 2485,
      "بِيُّ": 2486,
      "بِئْ": 2487,
      "بَعْدُ": 2488,
      "الْإِسْ": 2489,
      "الزِّيَا": 2490,
      "مَعًا": 2491,
      "رَجْ": 2492,
      "فَهَذَا": 2493,
      "مُقْتَ": 2494,
      "رِو": 2495,
      "سَلَّمَ": 2496,
      "حُرَّ": 2497,
      "الْإِي": 2498,
      "عَمْرِو": 2499,
      "ثَلَاثًا": 2500,
      "تَرَي": 2501,
      "دٍّ": 2502,
      "اللُّ": 2503,
      "أَتَي": 2504,
      "وَيْ": 2505,
      "حَسَ": 2506,
      "رُشْ": 2507,
      "الْمُرَادَ": 2508,
      "الْمُحَرَّ": 2509,
      "بِيرِ": 2510,
      "التَّقْ": 2511,
      "الْوَجْهِ": 2512,
      "طِّ": 2513,
      "الْأَوْلَي": 2514,
      "قَلَّ": 2515,
      "مُؤْ": 2516,
      "لْقِي": 2517,
      "الْأَقْ": 2518,
      "الْحَرْبِ": 2519,
      "شَرْطُ": 2520,
      "الْبَحْرِ": 2521,
      "عَلِ": 2522,
      "مَخْ": 2523,
      "مُحْ": 2524,
      "ثُهُ": 2525,
      "أَصْلًا": 2526,
      "أَقُولُ": 2527,
      "مُفْ": 2528,
      "يُكَ": 2529,
      "دَّا": 2530,
      "ثَهُ": 2531,
      "شَكَّ": 2532,
      "َّائِ": 2533,
      "كَوْنِ": 2534,
      "رَأْسِ": 2535,
      "ثَمَانِيَ": 2536,
      "نْطَ": 2537,
      "وَاضِ": 2538,
      "هَانِ": 2539,
      "سَبُ": 2540,
      "شَرَةِ": 2541,
      "بَيْعُهُ": 2542,
      "الشَّرْطِ": 2543,
      "رِوَايَةِ": 2544,
      "بَطَلَتْ": 2545,
      "هِشَا": 2546,
      "بَقِي": 2547,
      "يَخْرُجُ": 2548,
      "مُتَعَلِّقٌ": 2549,
      "أَنَ": 2550,
      "الْغَيْرِ": 2551,
      "فَتُ": 2552,
      "دَلَّ": 2553,
      "فِرَا": 2554,
      "تَبَيَّنَ": 2555,
      "بِنْتِ": 2556,
      "حَائِ": 2557,
      "وَيَجُوزُ": 2558,
      "عُونَ": 2559,
      "الرَّاهِ": 2560,
      "يُقْبَلُ": 2561,
      "زَوْجَتِهِ": 2562,
      "أَرَأَيْتَ": 2563,
      "بِالْحَ": 2564,
      "تَنَعَ": 2565,
      "رِبِ": 2566,
      "الْمُبَا": 2567,
      "وِيِّ": 2568,
      "فَرْقَ": 2569,
      "الْكَافِ": 2570,
      "الْقَتْ": 2571,
      "يَدْخُلُ": 2572,
      "سَانِ": 2573,
      "بَيْنَهُمْ": 2574,
      "الْبَاقِي": 2575,
      "الْعَبْدَ": 2576,
      "مَفْهُو": 2577,
      "لَك": 2578,
      "نَبِيِّ": 2579,
      "مَالًا": 2580,
      "مُحَرَّ": 2581,
      "وَالْمُرَادُ": 2582,
      "الْقَوْلِ": 2583,
      "فَعَةِ": 2584,
      "عِلَّ": 2585,
      "بَعْدَهَا": 2586,
      "غْتَ": 2587,
      "اجْ": 2588,
      "هًا": 2589,
      "قَرْ": 2590,
      "فَرُ": 2591,
      "يُبَا": 2592,
      "آدَ": 2593,
      "مِائَةِ": 2594,
      "حَاصِلُ": 2595,
      "يُوجِبُ": 2596,
      "الْجَمْ": 2597,
      "فِعْلِهِ": 2598,
      "الشَّيْخُ": 2599,
      "شَهْرٍ": 2600,
      "دًّا": 2601,
      "وَمِنْهَا": 2602,
      "مَي": 2603,
      "مَضْ": 2604,
      "لَازِ": 2605,
      "لِئَ": 2606,
      "شَرْطٍ": 2607,
      "كِتَابِ": 2608,
      "لَكِنَّ": 2609,
      "ذِمَّتِهِ": 2610,
      "قَتَلَ": 2611,
      "نَذَ": 2612,
      "اللَّيْ": 2613,
      "مَنْفَعَ": 2614,
      "التَّسْ": 2615,
      "لِلسَّ": 2616,
      "بِنَاءً": 2617,
      "مَقْصُو": 2618,
      "وَزْ": 2619,
      "وَصَحَّ": 2620,
      "الْيَدِ": 2621,
      "فَةُ": 2622,
      "لِيَّةِ": 2623,
      "الِانْتِ": 2624,
      "صَرِ": 2625,
      "ضَمَّ": 2626,
      "مَالِكِ": 2627,
      "سَنَةً": 2628,
      "بِسَبَبِ": 2629,
      "سَيَأْتِي": 2630,
      "قُطْ": 2631,
      "وَقَفَ": 2632,
      "يَبْقَي": 2633,
      "أَوَّلُ": 2634,
      "يَكْفِي": 2635,
      "تَدْ": 2636,
      "لُزُو": 2637,
      "النَّفَقَ": 2638,
      "يُعْتَبَرُ": 2639,
      "لِكَوْنِهِ": 2640,
      "يَحْصُلُ": 2641,
      "لِئَلَّا": 2642,
      "الْكُلِّ": 2643,
      "عَتَيْنِ": 2644,
      "خَبَ": 2645,
      "الْكِتَابَةِ": 2646,
      "مُعَيَّنٍ": 2647,
      "يَضُرُّ": 2648,
      "ظَّاهِرُ": 2649,
      "عَكْ": 2650,
      "نِثَ": 2651,
      "شُو": 2652,
      "تَحَ": 2653,
      "صَبَ": 2654,
      "قُتِلَ": 2655,
      "ئِهَا": 2656,
      "ابْتِدَا": 2657,
      "عُذْرٍ": 2658,
      "تُقْبَلُ": 2659,
      "يَذْكُرْ": 2660,
      "بِأَ": 2661,
      "مَالَ": 2662,
      "دَّةُ": 2663,
      "ثْبَا": 2664,
      "غَيَّ": 2665,
      "وَلَدُ": 2666,
      "الْفَتْ": 2667,
      "ثَلَاثَةِ": 2668,
      "فَصَارَ": 2669,
      "عِنْدَنَا": 2670,
      "مُوا": 2671,
      "حَقٍّ": 2672,
      "حَقٌّ": 2673,
      "شِرَا": 2674,
      "صَحُّ": 2675,
      "سَنَةٍ": 2676,
      "الْبِ": 2677,
      "بَحْ": 2678,
      "رِيقِ": 2679,
      "وَالشَّ": 2680,
      "أَهْلُ": 2681,
      "الْعَقْدُ": 2682,
      "الظَّ": 2683,
      "لَكِنَّهُ": 2684,
      "اتِّفَا": 2685,
      "بِعَيْنِهِ": 2686,
      "رَتُهُ": 2687,
      "يَرِ": 2688,
      "الصَّغِي": 2689,
      "رَأَي": 2690,
      "خَمْسَةَ": 2691,
      "رّ": 2692,
      "بُطْلَا": 2693,
      "آنِ": 2694,
      "ذِكْرِ": 2695,
      "الْفَا": 2696,
      "يَقُلْ": 2697,
      "كَشِي": 2698,
      "جَةِ": 2699,
      "سُلَيْ": 2700,
      "شُرُو": 2701,
      "الشَّارِحِ": 2702,
      "الْحَدِيثِ": 2703,
      "مْهُ": 2704,
      "الْمُدَّةِ": 2705,
      "أُمُّ": 2706,
      "وَجَلَّ": 2707,
      "لِلْمُشْتَرِي": 2708,
      "الْقِصَا": 2709,
      "الصِّح": 2710,
      "يَحْنَثُ": 2711,
      "زَوِّ": 2712,
      "حَدِيثُ": 2713,
      "الْمُسْلِمِ": 2714,
      "الْمَرْأَةُ": 2715,
      "جَعْفَرٍ": 2716,
      "بِدُونِ": 2717,
      "الْقِيمَةِ": 2718,
      "بِكَ": 2719,
      "رَبِ": 2720,
      "جُهَا": 2721,
      "اخْتِيَا": 2722,
      "لَمِ": 2723,
      "وَقَوْلُ": 2724,
      "حَبْ": 2725,
      "سْلُ": 2726,
      "ضَرُو": 2727,
      "أُنْثَي": 2728,
      "فَيَحْ": 2729,
      "يَنْقُ": 2730,
      "اللّهُ": 2731,
      "وَيَنْبَغِي": 2732,
      "يَدَيْهِ": 2733,
      "وَحُ": 2734,
      "رَهَ": 2735,
      "نَةً": 2736,
      "الْمُحْ": 2737,
      "الْمَذْكُورِ": 2738,
      "الرَّهْنِ": 2739,
      "صَرِي": 2740,
      "تُك": 2741,
      "ضَعِي": 2742,
      "الْأَصْحَا": 2743,
      "ثَلَاثَةٌ": 2744,
      "خُولِ": 2745,
      "دَفْعِ": 2746,
      "الْعَيْبِ": 2747,
      "تَنَا": 2748,
      "دَهَا": 2749,
      "هَدُ": 2750,
      "التَّفْ": 2751,
      "ذِمِّي": 2752,
      "عْتَبَرُ": 2753,
      "عَمْدًا": 2754,
      "يَسْتَحِقُّ": 2755,
      "وَاحِدَةٌ": 2756,
      "وَاَلَّذِي": 2757,
      "حَلِّ": 2758,
      "لُغَ": 2759,
      "رِئَ": 2760,
      "نَحْوُ": 2761,
      "مَسْجِ": 2762,
      "أُمِّهِ": 2763,
      "نَقَلَهُ": 2764,
      "الْوَرَثَةِ": 2765,
      "ذًا": 2766,
      "كَتَ": 2767,
      "الْمُسْتَأْجِ": 2768,
      "إِلَيْهِ": 2769,
      "حُكْمُهُ": 2770,
      "أَمْكَنَ": 2771,
      "قَتْلِ": 2772,
      "مِهَا": 2773,
      "ثَلَاثَةُ": 2774,
      "الْوَلَدُ": 2775,
      "أَثْ": 2776,
      "وَكُلُّ": 2777,
      "فْعَةِ": 2778,
      "طَهُ": 2779,
      "التَّحْ": 2780,
      "يَتَعَ": 2781,
      "غَرِ": 2782,
      "السَّيِّدِ": 2783,
      "وَنَحْوُ": 2784,
      "يَتَّ": 2785,
      "وَانْ": 2786,
      "حَبِي": 2787,
      "يَتَعَلَّقُ": 2788,
      "يُجْزِئُ": 2789,
      "قَضِي": 2790,
      "صَبِي": 2791,
      "بَعْضٍ": 2792,
      "ضَّا": 2793,
      "لَحْ": 2794,
      "الْقَوْ": 2795,
      "لْطَا": 2796,
      "يُرْ": 2797,
      "وَالْفَرْ": 2798,
      "مِثْلَهُ": 2799,
      "بَّرَ": 2800,
      "الدِّيَةِ": 2801,
      "الْأَمْرِ": 2802,
      "ثَالِ": 2803,
      "ؤُهَا": 2804,
      "وَنُ": 2805,
      "وَلِي": 2806,
      "وَمِنْهُ": 2807,
      "لِأَجْلِ": 2808,
      "بِدَلِي": 2809,
      "وَائِ": 2810,
      "رِبُ": 2811,
      "عْتَقَ": 2812,
      "صْبِ": 2813,
      "وَلِيِّ": 2814,
      "لِابْنِ": 2815,
      "لَأَ": 2816,
      "حَجَ": 2817,
      "تَبَعًا": 2818,
      "الظُّ": 2819,
      "إحْدَا": 2820,
      "الْمَجْمُو": 2821,
      "الْخِلَافِ": 2822,
      "تَكَ": 2823,
      "فْعِ": 2824,
      "الْمَقْصُو": 2825,
      "الْحَاكِمِ": 2826,
      "قَبَضَ": 2827,
      "بِالنِّسْبَةِ": 2828,
      "مِيَ": 2829,
      "بَعَ": 2830,
      "أَنْتَ": 2831,
      "دُوا": 2832,
      "الْكَفَّا": 2833,
      "الثَّانِيَةِ": 2834,
      "وَظَاهِرُ": 2835,
      "قَلِي": 2836,
      "إجْ": 2837,
      "رْجِعُ": 2838,
      "الْمُتَوَ": 2839,
      "خَلَّ": 2840,
      "عَاقِ": 2841,
      "غَائِ": 2842,
      "الْأَصْلُ": 2843,
      "رُشْدٍ": 2844,
      "ثَّ": 2845,
      "طِيَ": 2846,
      "عِيَ": 2847,
      "مَتَي": 2848,
      "مِلِ": 2849,
      "نَةُ": 2850,
      "الْمُقَ": 2851,
      "الْإِرْ": 2852,
      "الشَّرِي": 2853,
      "لِلزَّوْ": 2854,
      "السَّبَ": 2855,
      "الْعِدَّةِ": 2856,
      "أَصْلُ": 2857,
      "ذَّرَ": 2858,
      "قَدَّمُ": 2859,
      "عِنْدِي": 2860,
      "تَلِفَ": 2861,
      "كَرَا": 2862,
      "كَتَبَ": 2863,
      "هَايَةِ": 2864,
      "إبْ": 2865,
      "كَانُوا": 2866,
      "مَعَهَا": 2867,
      "الْبَلَ": 2868,
      "كَلَامَ": 2869,
      "يَخْفَي": 2870,
      "شَرِيكِهِ": 2871,
      "وَغَيْرُ": 2872,
      "تَمَّ": 2873,
      "ضَمَانَ": 2874,
      "تَقَدِّ": 2875,
      "أَرْضِ": 2876,
      "بِمُجَرَّدِ": 2877,
      "قَبْضِهِ": 2878,
      "اشْتِرَا": 2879,
      "أَمَرَ": 2880,
      "التَّرْ": 2881,
      "أَخْذِ": 2882,
      "تَعَيَّنَ": 2883,
      "وَالثَّانِي": 2884,
      "...": 2885,
      "مَمْلُو": 2886,
      "يُوجَدْ": 2887,
      "ارْتَ": 2888,
      "رَفَ": 2889,
      "رَبِي": 2890,
      "مُحْرِ": 2891,
      "غَلَّ": 2892,
      "وَاحِدًا": 2893,
      "الْقَضَاءِ": 2894,
      "أَحْرَمَ": 2895,
      "وَرَثَ": 2896,
      "تَصَدَّ": 2897,
      "يَجِدْ": 2898,
      "اسْتِحْقَا": 2899,
      "فُّ": 2900,
      "نا": 2901,
      "أَقَامَ": 2902,
      "إرْ": 2903,
      "رُمَ": 2904,
      "الْمُشْتَ": 2905,
      "نُهَا": 2906,
      "رَّةِ": 2907,
      "سُدُ": 2908,
      "الزَّكَا": 2909,
      "شَرْحِهِ": 2910,
      "السَّيِّدُ": 2911,
      "أَرَ": 2912,
      "مُشْتَ": 2913,
      "لْزَمُ": 2914,
      "عِلْمِهِ": 2915,
      "نِسْ": 2916,
      "ثَمَنِ": 2917,
      "وَأَحْ": 2918,
      "وَأَبُو": 2919,
      "غَرِي": 2920,
      "قَدْرَ": 2921,
      "الْعِبَا": 2922,
      "بَيِّنَةٍ": 2923,
      "الْحَمْلِ": 2924,
      "بَرْ": 2925,
      "كَسَ": 2926,
      "عُوا": 2927,
      "طَلَبَ": 2928,
      "جَمِيعًا": 2929,
      "بِيَمِي": 2930,
      "أَقْرَبُ": 2931,
      "الصَّحِيحِ": 2932,
      "نَص": 2933,
      "حَنِثَ": 2934,
      "كُلِّهِ": 2935,
      "الِاعْتِ": 2936,
      "الذِّمَّةِ": 2937,
      "يَصِيرُ": 2938,
      "بَطْ": 2939,
      "وَاسْ": 2940,
      "مْت": 2941,
      "يُقْتَ": 2942,
      "حِقَّ": 2943,
      "الرَّمْ": 2944,
      "مُومِ": 2945,
      "نِهَايَةٌ": 2946,
      "خٍ": 2947,
      "لِرَجُلٍ": 2948,
      "بِعَدَمِ": 2949,
      "نَذْ": 2950,
      "سَافِ": 2951,
      "الرَّدِّ": 2952,
      "حَجّ": 2953,
      "الزَّرْكَشِي": 2954,
      "التَّأْ": 2955,
      "لَنَا": 2956,
      "مَدْ": 2957,
      "فَرِّ": 2958,
      "رِهَ": 2959,
      "سَبِي": 2960,
      "الْمُعَيَّ": 2961,
      "صْبُ": 2962,
      "شُعْبَةُ": 2963,
      "ثُو": 2964,
      "وَهَذِهِ": 2965,
      "وَتَقَدَّمَ": 2966,
      "يَةً": 2967,
      "فَةٍ": 2968,
      "مَاءُ": 2969,
      "وَابْنِ": 2970,
      "فِعُ": 2971,
      "ضَرْ": 2972,
      "بَيَانِ": 2973,
      "يُونُسَ": 2974,
      "فَتَأَمَّلْ": 2975,
      "كَمَنْ": 2976,
      "سَحْ": 2977,
      "رُكْ": 2978,
      "الْمُقِ": 2979,
      "الْمُدَّعَي": 2980,
      "الْأَكْ": 2981,
      "وَالْعَ": 2982,
      "الْحَوْ": 2983,
      "شَرْعًا": 2984,
      "ؤْخَذُ": 2985,
      "الْعُمْ": 2986,
      "ثْبُتُ": 2987,
      "خَّرَ": 2988,
      "مُقَدَّ": 2989,
      "وَالْحَ": 2990,
      "يَعْلَمُ": 2991,
      "بْرَاهِيمَ": 2992,
      "نَظِي": 2993,
      "وَاقِ": 2994,
      "رْمِ": 2995,
      "وَيَجِبُ": 2996,
      "الشَّارِحُ": 2997,
      "وا": 2998,
      "لْحِ": 2999,
      "تُهُمْ": 3000,
      "الْحَقِّ": 3001,
      "يَعْرِ": 3002,
      "مَحَلُّ": 3003,
      "َّتِهِ": 3004,
      "الْكَا": 3005,
      "الْقَوْلُ": 3006,
      "بَعُ": 3007,
      "لَالِ": 3008,
      "رِبْ": 3009,
      "إيَّا": 3010,
      "كُفْ": 3011,
      "طَهَا": 3012,
      "الْإِجَارَةِ": 3013,
      "الْحَدَ": 3014,
      "صَارِ": 3015,
      "الْجَمَا": 3016,
      "الْبَيْعَ": 3017,
      "نَذَرَ": 3018,
      "دّ": 3019,
      "التُّ": 3020,
      "وَةَ": 3021,
      "قِهَا": 3022,
      "دَابَّ": 3023,
      "لِّيَ": 3024,
      "الصَّدَ": 3025,
      "تَأْخِي": 3026,
      "الْمَالِكِ": 3027,
      "كَوْنُهُ": 3028,
      "صَلَاةِ": 3029,
      "امْرَأَةً": 3030,
      "يَعْتِقُ": 3031,
      "الْتِ": 3032,
      "مُقَا": 3033,
      "ذَهَ": 3034,
      "تْلَا": 3035,
      "جَابِ": 3036,
      "غَةِ": 3037,
      "شَارِ": 3038,
      "فَأَجَابَ": 3039,
      "أَصْلِهِ": 3040,
      "ثُلُثِ": 3041,
      "إحْرَا": 3042,
      "يَحْتَمِلُ": 3043,
      "شَّا": 3044,
      "وَدُ": 3045,
      "وَصْ": 3046,
      "مَصْ": 3047,
      "بِلِ": 3048,
      "فَمَاتَ": 3049,
      "رِطَ": 3050,
      "خِذَ": 3051,
      "خِدْ": 3052,
      "وَجْهَانِ": 3053,
      "مَحَلَّ": 3054,
      "بَيِّنَةٌ": 3055,
      "بَقَاءِ": 3056,
      "دَاوُد": 3057,
      "مَتِهِ": 3058,
      "بِا": 3059,
      "رِجُ": 3060,
      "عْطَا": 3061,
      "ضْمَنُ": 3062,
      "ظَنَّ": 3063,
      "يَحْتَاجُ": 3064,
      "نُونَ": 3065,
      "الْأَصْلَ": 3066,
      "اثْنَيْنِ": 3067,
      "لَكَانَ": 3068,
      "هِمَا": 3069,
      "يَتَأَ": 3070,
      "بَلِ": 3071,
      "جَوْ": 3072,
      "الْأَكْثَ": 3073,
      "خِلَافَ": 3074,
      "يَمِينِهِ": 3075,
      "التَّعْلِي": 3076,
      "جِنْسِ": 3077,
      "ثنا": 3078,
      "وَهُمْ": 3079,
      "تَيَ": 3080,
      "تَتْ": 3081,
      "قْدَا": 3082,
      "زَائِ": 3083,
      "طَلَّقَهَا": 3084,
      "بِإِذْنِ": 3085,
      "وَيْنِ": 3086,
      "بِالْمَ": 3087,
      "رَرِ": 3088,
      "كَبِي": 3089,
      "الصَّيْ": 3090,
      "الْجُمْ": 3091,
      "بِيَدِ": 3092,
      "له": 3093,
      "َّتُهُ": 3094,
      "أَفَا": 3095,
      "عَجَزَ": 3096,
      "ذَنْ": 3097,
      "الْعَدَ": 3098,
      "ثْنَي": 3099,
      "عِيَا": 3100,
      "الْمَالَ": 3101,
      "سَمِعَ": 3102,
      "بَائِعِ": 3103,
      "ادَّ": 3104,
      "وَسِ": 3105,
      "الْوَاحِ": 3106,
      "رَمَاءِ": 3107,
      "سَلَّ": 3108,
      "الْأَمَةِ": 3109,
      "جَاهِ": 3110,
      "الْإِجَا": 3111,
      "لِأَنَّهُمْ": 3112,
      "تَقَرَّرَ": 3113,
      "لِلنَّ": 3114,
      "مَوْلَاهُ": 3115,
      "مَوْضِعٍ": 3116,
      "بِضَمِّ": 3117,
      "صِيَ": 3118,
      "رْفِ": 3119,
      "خُصُو": 3120,
      "إذْنِ": 3121,
      "زَوْجِهَا": 3122,
      "زَيْدٌ": 3123,
      "مُغْنِي": 3124,
      "كَعْ": 3125,
      "رَاتِ": 3126,
      "عَنْهُمْ": 3127,
      "قِيُّ": 3128,
      "عَبْدَ": 3129,
      "دِينَارٍ": 3130,
      "اثْنَا": 3131,
      "وَهَبَ": 3132,
      "بِاعْتِبَارِ": 3133,
      "مُرَ": 3134,
      "عَنْهُمَا": 3135,
      "حِلَّ": 3136,
      "الْأَبُ": 3137,
      "سِينَ": 3138,
      "اخْتَا": 3139,
      "الدُّخُولِ": 3140,
      "آخِرِ": 3141,
      "الْإِقْرَارِ": 3142,
      "بِدَلِيلِ": 3143,
      "ثِّ": 3144,
      "لَعَلَّ": 3145,
      "وَثُلُ": 3146,
      "وَحِينَئِذٍ": 3147,
      "وَآ": 3148,
      "صَدَا": 3149,
      "نَاسِ": 3150,
      "سَاوِي": 3151,
      "حِيطِ": 3152,
      "لّي": 3153,
      "عَّ": 3154,
      "الْمَوَّا": 3155,
      "ضِيِّ": 3156,
      "الْجَمِي": 3157,
      "احْتِمَالِ": 3158,
      "قَالَا": 3159,
      "الْمُوَ": 3160,
      "الْأَوَّلَ": 3161,
      "وَرْ": 3162,
      "وَخَ": 3163,
      "بِالنَّ": 3164,
      "تَجْ": 3165,
      "وَافَقَ": 3166,
      "دَتِهِ": 3167,
      "قْصَا": 3168,
      "بَيْعٍ": 3169,
      "صَلَاتُهُ": 3170,
      "الدَّارِ": 3171,
      "الْوَكِيلُ": 3172,
      "فَلْيُتَأَمَّلْ": 3173,
      "أَجْزَأَ": 3174,
      "ضِّ": 3175,
      "تَغْ": 3176,
      "فَنَ": 3177,
      "أَنَّهُمْ": 3178,
      "قُدِّ": 3179,
      "سِنِينَ": 3180,
      "طْلُو": 3181,
      "زِهِ": 3182,
      "لِلشَّ": 3183,
      "أَهْلِهِ": 3184,
      "امْتِنَا": 3185,
      "يُصَلِّي": 3186,
      "الْكِتَابِ": 3187,
      "لِأَبٍ": 3188,
      "تَنَ": 3189,
      "رَبَ": 3190,
      "فَةٌ": 3191,
      "وَسَوَاءٌ": 3192,
      "وَمَحَلُّ": 3193,
      "ثَمَنِهِ": 3194,
      "وَالثَّ": 3195,
      "زْوِي": 3196,
      "الْوَكِيلِ": 3197,
      "فَيْ": 3198,
      "هَكَذَا": 3199,
      "الْمُؤْ": 3200,
      "بَيْعِهِ": 3201,
      "هْرُ": 3202,
      "النِّهَايَةِ": 3203,
      "اشْتَرَاهُ": 3204,
      "مُؤَجَّ": 3205,
      "أَمِي": 3206,
      "بِأَمْ": 3207,
      "فَارِ": 3208,
      "زَةِ": 3209,
      "طَلِّ": 3210,
      "جَانِ": 3211,
      "دٌّ": 3212,
      "أَشْبَهَ": 3213,
      "ثَلَاثَةَ": 3214,
      "بِغَيْرِهِ": 3215,
      "عْهُ": 3216,
      "سَابِ": 3217,
      "الْأُخْرَي": 3218,
      "وَمِثْلُ": 3219,
      "مَلْ": 3220,
      "بَقَ": 3221,
      "قَاطِ": 3222,
      "لِهِمْ": 3223,
      "لِّمُ": 3224,
      "سَالِ": 3225,
      "الْحَارِثِ": 3226,
      "امْتَنَعَ": 3227,
      "لّمَ": 3228,
      "الْمُوصَي": 3229,
      "وَهْبٍ": 3230,
      "قَطِ": 3231,
      "يَرُدُّ": 3232,
      "لُبْ": 3233,
      "لُحُ": 3234,
      "فَأُ": 3235,
      "الْمُعْ": 3236,
      "فَيَجِبُ": 3237,
      "الزِّنَا": 3238,
      "بِالسَّ": 3239,
      "قَضَي": 3240,
      "يَدَهُ": 3241,
      "مَالُ": 3242,
      "لْبِ": 3243,
      "جَامِ": 3244,
      "الْإِذْ": 3245,
      "مِيُّ": 3246,
      "نَفْيِ": 3247,
      "إذْنِهِ": 3248,
      "نُونٍ": 3249,
      "ثَلَاثَةٍ": 3250,
      "الْآتِي": 3251,
      "قَطْعِ": 3252,
      "الصُّو": 3253,
      "ثُبُوتِ": 3254,
      "لَفِ": 3255,
      "وَةُ": 3256,
      "مْسِ": 3257,
      "خُلُ": 3258,
      "عَبْدٌ": 3259,
      "يَتَعَيَّ": 3260,
      "آخَرِ": 3261,
      "عُودٍ": 3262,
      "الضَّمَانِ": 3263,
      "أَمَةً": 3264,
      "صَحِيحٍ": 3265,
      "الدِّينِ": 3266,
      "عِلْمِ": 3267,
      "يَزِيدَ": 3268,
      "الْإِحْرَامِ": 3269,
      "وٍ": 3270,
      "أَخِي": 3271,
      "الْقَبْ": 3272,
      "فَانْ": 3273,
      "رَابِ": 3274,
      "بَالِ": 3275,
      "الْمَالُ": 3276,
      "وَرَوَي": 3277,
      "وَرَثَةِ": 3278,
      "الرِّوَا": 3279,
      "صُّهُ": 3280,
      "وَنَحْوَ": 3281,
      "لِرَبِّ": 3282,
      "بِكَسْرِ": 3283,
      "يَصِ": 3284,
      "جَبَ": 3285,
      "خَلِي": 3286,
      "قِصَا": 3287,
      "مَنْصُو": 3288,
      "مُوسَي": 3289,
      "مَوْقُو": 3290,
      "الْحَيْضِ": 3291,
      "لَتِهِ": 3292,
      "الْكَلَامِ": 3293,
      "كَحَ": 3294,
      "صَلّي": 3295,
      "مَنْزِ": 3296,
      "الْإِخْ": 3297,
      "سُبْ": 3298,
      "دِيِّ": 3299,
      "يَحْلِفُ": 3300,
      "فَرَّقَ": 3301,
      "ذَكَرْنَا": 3302,
      "سِلْ": 3303,
      "طَعَ": 3304,
      "دَأَ": 3305,
      "سَاءِ": 3306,
      "لِلصَّ": 3307,
      "قِيَاسُ": 3308,
      "بَيِّنَةً": 3309,
      "يَزِيدُ": 3310,
      "النَّظَرِ": 3311,
      "بَيَّنَّا": 3312,
      "أَتْلَفَ": 3313,
      "سَمُ": 3314,
      "الْمُعَا": 3315,
      "وَأَخَذَ": 3316,
      "التَّيَمُّ": 3317,
      "هُورِ": 3318,
      "الِاسْتِحْ": 3319,
      "قَطْعًا": 3320,
      "الْمُعْتَمَدُ": 3321,
      "الْجِنَايَةِ": 3322,
      "كُرِهَ": 3323,
      "طَوُّ": 3324,
      "رِيَّةِ": 3325,
      "وَسَلّمَ": 3326,
      "الِاخْ": 3327,
      "يُفِيدُ": 3328,
      "ٌٔ": 3329,
      "قَتَا": 3330,
      "مُضَا": 3331,
      "بُهَا": 3332,
      "ضَمَا": 3333,
      "الْعَدْ": 3334,
      "وَالدَّ": 3335,
      "طَاهِ": 3336,
      "الثَّمَنَ": 3337,
      "الْمَالِكُ": 3338,
      "يَبْطُلُ": 3339,
      "الْخُرُو": 3340,
      "فُلَانٌ": 3341,
      "الْفِطْ": 3342,
      "رَدَّهُ": 3343,
      "سَعِيدِ": 3344,
      "عِوَضٍ": 3345,
      "عَدَا": 3346,
      "قَضَاءِ": 3347,
      "مُكَاتَ": 3348,
      "حَجَّ": 3349,
      "إطْلَا": 3350,
      "حِلِّ": 3351,
      "قُطِ": 3352,
      "الْخَطَّا": 3353,
      "تَفْرِي": 3354,
      "النِّصْفِ": 3355,
      "عَطْفٌ": 3356,
      "حَرَامٌ": 3357,
      "كَإِ": 3358,
      "بَارِ": 3359,
      "حُكْمًا": 3360,
      "انْتَقَ": 3361,
      "الدَّعْ": 3362,
      "تَعَذَّرَ": 3363,
      "عِشْرُونَ": 3364,
      "الثَّلَاثَةِ": 3365,
      "الزَّرْكَشِيُّ": 3366,
      "وَدِ": 3367,
      "إجَا": 3368,
      "تُجْ": 3369,
      "جُعِ": 3370,
      "قِيقِ": 3371,
      "لِلْمَ": 3372,
      "مَعْرُو": 3373,
      "خِيَارِ": 3374,
      "ثَوْبًا": 3375,
      "الْمَفْ": 3376,
      "دَايَةِ": 3377,
      "ثَانِي": 3378,
      "عَادَةً": 3379,
      "وَالْفَرْقُ": 3380,
      "جَّا": 3381,
      "طُّ": 3382,
      "أَدَّي": 3383,
      "أَطْلَقَ": 3384,
      "وَبَقِيَ": 3385,
      "الْهَدْ": 3386,
      "لِبُ": 3387,
      "لِكِ": 3388,
      "رَضِ": 3389,
      "مْنَا": 3390,
      "رَافِ": 3391,
      "لِيَا": 3392,
      "الْجَوْ": 3393,
      "وَقَضِي": 3394,
      "الْبَيْتِ": 3395,
      "بِإِقْرَا": 3396,
      "ثِينَ": 3397,
      "الْمَنْفَعَةِ": 3398,
      "بِنْتُ": 3399,
      "نَصِيبِهِ": 3400,
      "طَلَّقَ": 3401,
      "قَتَلَهُ": 3402,
      "الْأَجَلِ": 3403,
      "حَبِيبٍ": 3404,
      "وَفَ": 3405,
      "وَعِبَارَةُ": 3406,
      "رَمُ": 3407,
      "يَرُدَّ": 3408,
      "حَمَّا": 3409,
      "جَزَمَ": 3410,
      "بِيعَ": 3411,
      "وَنَحْوِهَا": 3412,
      "بِأَلْفٍ": 3413,
      "الصِّحَّةِ": 3414,
      "رَدِّ": 3415,
      "جَهِ": 3416,
      "الْمَكْ": 3417,
      "وَالرَّ": 3418,
      "قَبْلَهَا": 3419,
      "بَعْضِهِ": 3420,
      "وَقَعَتْ": 3421,
      "الْفَرْضِ": 3422,
      "فَوْقَ": 3423,
      "اخْتَلَ": 3424,
      "وَالسَّلَامُ": 3425,
      "شِيَ": 3426,
      "سَفَ": 3427,
      "الْمُتَقَدِّ": 3428,
      "سُقُو": 3429,
      "شَأْ": 3430,
      "وَيُحْتَمَلُ": 3431,
      "الْعَاقِ": 3432,
      "دِرْهَمًا": 3433,
      "وَجَبَتْ": 3434,
      "مَرْأَ": 3435,
      "الطُّ": 3436,
      "حَدَثَ": 3437,
      "الْمُكَاتَبِ": 3438,
      "غَالِبًا": 3439,
      "عُثْمَانَ": 3440,
      "مَضَي": 3441,
      "تَشْ": 3442,
      "حَاضِ": 3443,
      "رِهِمْ": 3444,
      "شَرْطٌ": 3445,
      "أَوَّلَ": 3446,
      "تَفْسِي": 3447,
      "زِيَادَةِ": 3448,
      "رَأَيْت": 3449,
      "رَكْعَتَيْنِ": 3450,
      "فَقَوْلُهُ": 3451,
      "هَمُ": 3452,
      "الْمُعَ": 3453,
      "جَالِ": 3454,
      "الْقَضَا": 3455,
      "وَجَزَمَ": 3456,
      "حَقَّهُ": 3457,
      "تَصَوَّ": 3458,
      "الْبُخَا": 3459,
      "اقْ": 3460,
      "جًا": 3461,
      "الْحُكْمَ": 3462,
      "بِعِ": 3463,
      "هَارِ": 3464,
      "دُهَا": 3465,
      "يَقْدِ": 3466,
      "الِاحْ": 3467,
      "الْآنَ": 3468,
      "الظَّاهِ": 3469,
      "الْغَاصِبِ": 3470,
      "الْمُرْتَهِنِ": 3471,
      "الْمَجْمُوعِ": 3472,
      "الْبَلَدِ": 3473,
      "بِعُ": 3474,
      "تَسْتَ": 3475,
      "مْتَنِ": 3476,
      "قَارِ": 3477,
      "رَأُ": 3478,
      "بَعْضُهُ": 3479,
      "سِتَّةِ": 3480,
      "الْمَدِينَةِ": 3481,
      "نَهْ": 3482,
      "رِجَ": 3483,
      "إمْ": 3484,
      "الْمُسَمَّي": 3485,
      "ذْفِ": 3486,
      "التَّمْ": 3487,
      "مِيرَا": 3488,
      "الصَّوْمِ": 3489,
      "الْهِدَايَةِ": 3490,
      "الْمَسْأَلَةُ": 3491,
      "الْوُضُوءِ": 3492,
      "الْفَتْحِ": 3493,
      "وَعُ": 3494,
      "الْوَلَا": 3495,
      "لِحَدِيثِ": 3496,
      "بِنَحْوِ": 3497,
      "تُكَ": 3498,
      "الْحَرْ": 3499,
      "الْحَرَمِ": 3500,
      "وَالظَّاهِرُ": 3501,
      "ضَامِ": 3502,
      "بَعْضِهِمْ": 3503,
      "كُلَّهُ": 3504,
      "الْبُلْقِي": 3505,
      "الثَّوْبِ": 3506,
      "الشَّهَادَةِ": 3507,
      "لَمَا": 3508,
      "حَرُمَ": 3509,
      "يُوَ": 3510,
      "هْرَ": 3511,
      "جِيبَ": 3512,
      "صَلَاةٍ": 3513,
      "دَعْوَاهُ": 3514,
      "اسْتِئْ": 3515,
      "نَفْسِهَا": 3516,
      "وَلْ": 3517,
      "فَاسْتَ": 3518,
      "جْمَاعِ": 3519,
      "جُودِ": 3520,
      "يَنْفَ": 3521,
      "جَمِيعَ": 3522,
      "عَقْدِ": 3523,
      "حَقُّهُ": 3524,
      "وَطْءِ": 3525,
      "ابْتِدَاءً": 3526,
      "نَجِ": 3527,
      "فْظُ": 3528,
      "عَانِ": 3529,
      "حَالٍ": 3530,
      "لُوغِ": 3531,
      "نَفْسَ": 3532,
      "قَّفُ": 3533,
      "اسْتَوْ": 3534,
      "أَعْتَقَهُ": 3535,
      "الشَّافِعِيُّ": 3536,
      "الْعَوْ": 3537,
      "التَّعَ": 3538,
      "دِيٌّ": 3539,
      "فَالْقَوْلُ": 3540,
      "أَقَلُّ": 3541,
      "مُسْلِمًا": 3542,
      "مِثْلِهَا": 3543,
      "دَيْنِهِ": 3544,
      "الْوَصِيَّةُ": 3545,
      "الْغَائِ": 3546,
      "الْجَارِيَ": 3547,
      "ءُو": 3548,
      "بِكُلِّ": 3549,
      "حَةٌ": 3550,
      "عْلَمْ": 3551,
      "الْمَدْ": 3552,
      "لِلْبَائِعِ": 3553,
      "طُهُ": 3554,
      "عَدَمِهِ": 3555,
      "الرَّأْ": 3556,
      "شَخْصٍ": 3557,
      "شْكِ": 3558,
      "ضَعْ": 3559,
      "يَاءِ": 3560,
      "إنْسَا": 3561,
      "الْفَصْ": 3562,
      "الَّذِينَ": 3563,
      "الْفُرُوعِ": 3564,
      "سُفْيَانَ": 3565,
      "الْأَصْحَابِ": 3566,
      "هُّ": 3567,
      "لْزِ": 3568,
      "كَانَا": 3569,
      "قِرَاءَ": 3570,
      "طَأَ": 3571,
      "غَاصِ": 3572,
      "عْتِقُ": 3573,
      "كَلَامِهِمْ": 3574,
      "تَصْحِي": 3575,
      "الْمُوَكِّلِ": 3576,
      "خٌ": 3577,
      "الْبِنَاءِ": 3578,
      "كَقَوْلِهِ": 3579,
      "حَدِّ": 3580,
      "سْرِ": 3581,
      "الدَّمِ": 3582,
      "أُجْرَةِ": 3583,
      "يَثْبُتْ": 3584,
      "خَيَّرُ": 3585,
      "مَهَا": 3586,
      "قَرَا": 3587,
      "فَرَا": 3588,
      "فَضَ": 3589,
      "إسْلَا": 3590,
      "رْحِ": 3591,
      "يُرَدُّ": 3592,
      "وَيُسْتَ": 3593,
      "اسْتِعْ": 3594,
      "مُعَاوِيَ": 3595,
      "اخْتَلَفَ": 3596,
      "بِإِذْنِهِ": 3597,
      "الْخِيَارُ": 3598,
      "لَبَ": 3599,
      "وَعِشْرِينَ": 3600,
      "الْفَاسِ": 3601,
      "قَوْله": 3602,
      "فَاقِ": 3603,
      "فِعَ": 3604,
      "شَقَّ": 3605,
      "سِمُ": 3606,
      "جَابُ": 3607,
      "الِانْ": 3608,
      "فَيَجُوزُ": 3609,
      "دِهِمْ": 3610,
      "جَّهُ": 3611,
      "يَبْلُ": 3612,
      "ؤُلَاءِ": 3613,
      "مَجْهُو": 3614,
      "نِكَاحٍ": 3615,
      "الشِّرَاءِ": 3616,
      "وَجْهَيْنِ": 3617,
      "اثْنَانِ": 3618,
      "الْيَوْمَ": 3619,
      "الْوُقُو": 3620,
      "مَكَا": 3621,
      "تَطْلُ": 3622,
      "مِصْ": 3623,
      "نَجَاسَ": 3624,
      "بَتُهُ": 3625,
      "لْت": 3626,
      "بْهَةِ": 3627,
      "رُؤْ": 3628,
      "بَاعِ": 3629,
      "عَارِ": 3630,
      "وَيُكْرَهُ": 3631,
      "مِلْكُهُ": 3632,
      "أَخْذًا": 3633,
      "وُجُوبُ": 3634,
      "بِعَيْ": 3635,
      "الشَّاهِ": 3636,
      "شِئْ": 3637,
      "صَارَتْ": 3638,
      "عِتْقِهِ": 3639,
      "ثَوْبٍ": 3640,
      "الْهِبَةِ": 3641,
      "عَقِبَ": 3642,
      "الْبَيِّنَةَ": 3643,
      "ضَعِيفٌ": 3644,
      "أَمَا": 3645,
      "رَجِ": 3646,
      "فَكَيْفَ": 3647,
      "يُخَا": 3648,
      "حِقِّ": 3649,
      "قِلُ": 3650,
      "التَّمَ": 3651,
      "وَيُسَ": 3652,
      "قِيمَتَهُ": 3653,
      "فَعَلَهُ": 3654,
      "فَسَخَ": 3655,
      "تَبْطُلُ": 3656,
      "الْمَأْمُو": 3657,
      "عَطَا": 3658,
      "فَفِيهِ": 3659,
      "عَاهُ": 3660,
      "الْوَدِي": 3661,
      "خَمْسِينَ": 3662,
      "بِخِلَافِهِ": 3663,
      "خَرَجَتْ": 3664,
      "يَصْلُحُ": 3665,
      "بِاَ": 3666,
      "ّي": 3667,
      "اللِّ": 3668,
      "نِصَا": 3669,
      "نَانِي": 3670,
      "خَصْ": 3671,
      "الْمَرِي": 3672,
      "اللَّا": 3673,
      "دَانِ": 3674,
      "فَأَكْثَ": 3675,
      "غَابَ": 3676,
      "عَيْبٍ": 3677,
      "جُزْءٍ": 3678,
      "حُرْمَةِ": 3679,
      "الْخِيَارِ": 3680,
      "الدَّيْنُ": 3681,
      "الْخَطَّابِ": 3682,
      "وَرُوِيَ": 3683,
      "رَعَ": 3684,
      "فَذَ": 3685,
      "بَرَهُ": 3686,
      "دَّةَ": 3687,
      "خَطَ": 3688,
      "ضْحِي": 3689,
      "وَيُمْ": 3690,
      "الْفَضْ": 3691,
      "خَمْسَةٌ": 3692,
      "لِلزَّوْجِ": 3693,
      "لَسَ": 3694,
      "أَكَلَ": 3695,
      "هُنَّ": 3696,
      "بَي": 3697,
      "بَيَّنَ": 3698,
      "تِمَّ": 3699,
      "تِمُّ": 3700,
      "صَرْ": 3701,
      "رَاضِ": 3702,
      "الْمَبْ": 3703,
      "جِبْ": 3704,
      "كْرَ": 3705,
      "قُدْ": 3706,
      "حُضُو": 3707,
      "لِأَنَّهُمَا": 3708,
      "وَيَسْتَ": 3709,
      "صِيلِ": 3710,
      "بَّمَا": 3711,
      "صَحَّتْ": 3712,
      "عَشْرَةَ": 3713,
      "أَجْنَبِيٍّ": 3714,
      "يَرْجِعَ": 3715,
      "وَيُؤَ": 3716,
      "قَادِ": 3717,
      "فُذُ": 3718,
      "بَلَدٍ": 3719,
      "رَأْسِهِ": 3720,
      "الشَّيْءِ": 3721,
      "يُصَدَّ": 3722,
      "الْجَوَابُ": 3723,
      "الْقِسْمَةِ": 3724,
      "الْإِسْنَ": 3725,
      "بِيَمِينِهِ": 3726,
      "سِيَ": 3727,
      "وَمَعَ": 3728,
      "رَشِي": 3729,
      "قَاعِ": 3730,
      "وَإِنَّ": 3731,
      "وَيَبْ": 3732,
      "أَحَقُّ": 3733,
      "مَوْجُو": 3734,
      "فَالْمُ": 3735,
      "عُودُ": 3736,
      "زَوْجٍ": 3737,
      "كَأَنَّ": 3738,
      "سُبْحَا": 3739,
      "ٍٔ": 3740,
      "بِقَوْلِ": 3741,
      "نَصْ": 3742,
      "وَابِ": 3743,
      "وَاعْتَ": 3744,
      "حَالُ": 3745,
      "ذْرُ": 3746,
      "يَّةَ": 3747,
      "خَاصَّ": 3748,
      "مَسْعُودٍ": 3749,
      "ظَاهِرِ": 3750,
      "دَيْنًا": 3751,
      "يَمِينٍ": 3752,
      "مَحْجُو": 3753,
      "يَأْكُلُ": 3754,
      "افْ": 3755,
      "احْتَ": 3756,
      "عَمَّ": 3757,
      "لِتَعَ": 3758,
      "قَبَةِ": 3759,
      "قَدَّمَ": 3760,
      "نَفِي": 3761,
      "عْت": 3762,
      "تِصَا": 3763,
      "فِطْ": 3764,
      "زَوَالِ": 3765,
      "جُمُ": 3766,
      "خِنَا": 3767,
      "وَيَسْ": 3768,
      "مَعْرِفَ": 3769,
      "حَيًّا": 3770,
      "وَأَرْبَ": 3771,
      "أَنَسٍ": 3772,
      "شُّ": 3773,
      "لِاحْتِمَالِ": 3774,
      "تَمَامِ": 3775,
      "فَقُلْتُ": 3776,
      "نَيْنِ": 3777,
      "رُجُ": 3778,
      "قْتُ": 3779,
      "زَرْ": 3780,
      "زِلُ": 3781,
      "الِابْنِ": 3782,
      "تَأَخِّ": 3783,
      "الْوَارِثِ": 3784,
      "وَنَقَلَ": 3785,
      "حِصَّتِهِ": 3786,
      "فَسْخِ": 3787,
      "الْمَغْصُو": 3788,
      "فَيَنْبَغِي": 3789,
      "يَسِي": 3790,
      "يَرِثُ": 3791,
      "مَاءٍ": 3792,
      "حَلَ": 3793,
      "إلْ": 3794,
      "هَؤُلَاءِ": 3795,
      "جَهَا": 3796,
      "الْأَخِي": 3797,
      "كْرَا": 3798,
      "الْوَكَا": 3799,
      "يَبْقَ": 3800,
      "الظَّاهِرُ": 3801,
      "سَأَلَ": 3802,
      "بَاطِلٌ": 3803,
      "اخْتِلَافِ": 3804,
      "ضَيْ": 3805,
      "يٌ": 3806,
      "يَلْحَ": 3807,
      "فَلِلْ": 3808,
      "لَاةِ": 3809,
      "جَدَ": 3810,
      "دَائِ": 3811,
      "وَيَصِحُّ": 3812,
      "الْوَلِي": 3813,
      "مُوسِ": 3814,
      "فَإِنَّمَا": 3815,
      "الْقِبْ": 3816,
      "فَرَّقُ": 3817,
      "ثْنَاءِ": 3818,
      "وَاجِبٌ": 3819,
      "طَلَاقٍ": 3820,
      "خَطَأً": 3821,
      "شُبْهَةٍ": 3822,
      "اسْتَأْجَرَ": 3823,
      "نَصًّا": 3824,
      "يَسَا": 3825,
      "نَدْ": 3826,
      "دَلَا": 3827,
      "ذَيْنِ": 3828,
      "صَةِ": 3829,
      "الْمُحْرِ": 3830,
      "الْأَفْ": 3831,
      "شَرْحُ": 3832,
      "تَعْيِي": 3833,
      "ثُلُثُ": 3834,
      "يُقْطَعُ": 3835,
      "رَأَيْتُ": 3836,
      "يَجِبْ": 3837,
      "أَدْرَكَ": 3838,
      "الْفِعْلِ": 3839,
      "تَمَا": 3840,
      "مُرْ": 3841,
      "حَكَمَ": 3842,
      "لْبَ": 3843,
      "حُرًّا": 3844,
      "الْوَلِيُّ": 3845,
      "خَالَ": 3846,
      "الْمَوْقُو": 3847,
      "زَيْدِ": 3848,
      "الْقَتْلِ": 3849,
      "إحْدَاهُمَا": 3850,
      "وَبَعْدَ": 3851,
      "عَقِي": 3852,
      "مُرْتَ": 3853,
      "جِلْ": 3854,
      "وَأَفْ": 3855,
      "دَاءَ": 3856,
      "ظَرُ": 3857,
      "ظَنِّ": 3858,
      "يَأْتِيَ": 3859,
      "وَرَوَاهُ": 3860,
      "عَيْنٍ": 3861,
      "الْبُلْقِينِيُّ": 3862,
      "وَغَ": 3863,
      "وَدِي": 3864,
      "لِبَ": 3865,
      "لْعِ": 3866,
      "نَاتِ": 3867,
      "فَرْضِ": 3868,
      "وَرَدَ": 3869,
      "أَلْفٌ": 3870,
      "النَّاسُ": 3871,
      "جَمْعُ": 3872,
      "حَقِيقَةً": 3873,
      "بِلَفْظِ": 3874,
      "قَدِمَ": 3875,
      "مُسَ": 3876,
      "مُتَوَ": 3877,
      "مُخَالِ": 3878,
      "وَامْ": 3879,
      "لَائِ": 3880,
      "حَمَلَ": 3881,
      "بَّهَ": 3882,
      "بِمَالٍ": 3883,
      "قَتْلِهِ": 3884,
      "للَّهِ": 3885,
      "مَكْرُو": 3886,
      "قَتَادَةَ": 3887,
      "وَلِيُّ": 3888,
      "وَغَيْرِهَا": 3889,
      "مَرِي": 3890,
      "إثْبَا": 3891,
      "رَاكِ": 3892,
      "قْدِ": 3893,
      "تُسْ": 3894,
      "فِضَّ": 3895,
      "دْت": 3896,
      "قُرَيْ": 3897,
      "اللَّخْ": 3898,
      "قَدْرُ": 3899,
      "دَارٍ": 3900,
      "التَّنْ": 3901,
      "مِيرُ": 3902,
      "شَرْعِي": 3903,
      "الْبَابِ": 3904,
      "الْعَقْدَ": 3905,
      "نَقَلَ": 3906,
      "شَهَادَةِ": 3907,
      "الثُّلُثُ": 3908,
      "مَغْ": 3909,
      "بِدَيْنٍ": 3910,
      "يَتَقَ": 3911,
      "فَيْنِ": 3912,
      "نَتْ": 3913,
      "حَةُ": 3914,
      "لْتُ": 3915,
      "تِدَاءِ": 3916,
      "فَاتَ": 3917,
      "شَي": 3918,
      "صْحَ": 3919,
      "وَسَيَأْتِي": 3920,
      "السَّلَامِ": 3921,
      "وَقَدَّ": 3922,
      "صُدِّ": 3923,
      "الرَّافِ": 3924,
      "تُوُ": 3925,
      "ضَرَبَ": 3926,
      "مَذْهَبُ": 3927,
      "أَوْلَادِ": 3928,
      "أَخْرَجَهُ": 3929,
      "الشَّافِعِيِّ": 3930,
      "تَصَدَّقَ": 3931,
      "مَاءَ": 3932,
      "قَامَةِ": 3933,
      "شَجَ": 3934,
      "وَأَبِي": 3935,
      "صَادِ": 3936,
      "حَقًّا": 3937,
      "فَأَخْ": 3938,
      "الْمَاوَرْ": 3939,
      "إلَيْهِمْ": 3940,
      "السُّلْطَا": 3941,
      "وَطِئَهَا": 3942,
      "نَزَلَ": 3943,
      "اتِّفَاقًا": 3944,
      "لِفُلَانٍ": 3945,
      "بِنِصْفِ": 3946,
      "مُنَا": 3947,
      "مَالَهُ": 3948,
      "كَثُ": 3949,
      "الْمُتَّ": 3950,
      "لِيلِ": 3951,
      "قُوا": 3952,
      "طُهْ": 3953,
      "الْمَاءَ": 3954,
      "الْقَائِ": 3955,
      "كَوْنُ": 3956,
      "السُّو": 3957,
      "صَلَاتِهِ": 3958,
      "وَمُغْنِي": 3959,
      "خَمْسَةِ": 3960,
      "الْفَرْقُ": 3961,
      "الْجَانِي": 3962,
      "الرُّجُوعُ": 3963,
      "التَّصَرُّفِ": 3964,
      "بَّةِ": 3965,
      "عَجْ": 3966,
      "مَقَا": 3967,
      "فَجَ": 3968,
      "فَذَلِكَ": 3969,
      "فَكَأَنَّهُ": 3970,
      "نَكَلَ": 3971,
      "مُدَبَّ": 3972,
      "مَاعِي": 3973,
      "نِعَ": 3974,
      "قِرَّ": 3975,
      "زَلَ": 3976,
      "طَةِ": 3977,
      "اللَّهُمَّ": 3978,
      "شُفْ": 3979,
      "يَضْمَنْ": 3980,
      "غُو": 3981,
      "عَرْ": 3982,
      "مَدُ": 3983,
      "رَبَّ": 3984,
      "بَكْرِ": 3985,
      "ثَةَ": 3986,
      "الْمَلِكِ": 3987,
      "كُلًّا": 3988,
      "سِلُ": 3989,
      "رِيمِ": 3990,
      "صِهِ": 3991,
      "زَاءِ": 3992,
      "الْقَطْعِ": 3993,
      "مِلْكُ": 3994,
      "نِصْفُهُ": 3995,
      "الْجِنْ": 3996,
      "مَحْمُو": 3997,
      "أَحَدَهُمَا": 3998,
      "ثَابِتٍ": 3999,
      "مُقْتَضَي": 4000,
      "تَصَوَّرُ": 4001,
      "الْيَوْمِ": 4002,
      "بِالشُّ": 4003,
      "يَدَّعِي": 4004,
      "مُوَ": 4005,
      "مُدَّةِ": 4006,
      "أَنْفَقَ": 4007,
      "تَابَ": 4008,
      "ضْطَ": 4009,
      "الصَّدَا": 4010,
      "يَنْظُ": 4011,
      "الْحَائِ": 4012,
      "الْكَعْ": 4013,
      "الطَّرِيقِ": 4014,
      "حْتَمِلُ": 4015,
      "رَأْسَهُ": 4016,
      "صِحَّتِهِ": 4017,
      "رَاجِعٌ": 4018,
      "دُخُولِ": 4019,
      "يَحْنَثْ": 4020,
      "سَّا": 4021,
      "شِّ": 4022,
      "أَطْ": 4023,
      "عَهْ": 4024,
      "وْا": 4025,
      "تَلِ": 4026,
      "حَضَرَ": 4027,
      "هَمْ": 4028,
      "الْمُحِيطِ": 4029,
      "رُورَةِ": 4030,
      "الْفَجْرِ": 4031,
      "أَرْبَعَةٌ": 4032,
      "رَقَبَتِهِ": 4033,
      "أَبَدًا": 4034,
      "النَّفْسِ": 4035,
      "مَكَانَ": 4036,
      "فَذَكَرَ": 4037,
      "نَةٌ": 4038,
      "رَاءُ": 4039,
      "خِلَافُهُ": 4040,
      "لِلْمُسْلِ": 4041,
      "مَلَكَهُ": 4042,
      "حَاصِلُهُ": 4043,
      "يُنَافِي": 4044,
      "لِقَوْلِ": 4045,
      "مَهْرِ": 4046,
      "بِهُ": 4047,
      "بِبَيِّنَةٍ": 4048,
      "نَيْ": 4049,
      "رُبْ": 4050,
      "سِوَي": 4051,
      "ضَرَّ": 4052,
      "قُودِ": 4053,
      "الرَّجْ": 4054,
      "تَعَيَّ": 4055,
      "الْحُرْ": 4056,
      "الْمُدَبَّ": 4057,
      "جَمَاعَةٌ": 4058,
      "الزَّوْجَةِ": 4059,
      "رْمِذِي": 4060,
      "وَلاَ": 4061,
      "الْخَيْ": 4062,
      "الْوِلَا": 4063,
      "نْبَ": 4064,
      "مَسَا": 4065,
      "قَصَ": 4066,
      "يَلِي": 4067,
      "فَقِيلَ": 4068,
      "لَاحِ": 4069,
      "يُزَوِّ": 4070,
      "صَلِّي": 4071,
      "عُقْ": 4072,
      "عُضْ": 4073,
      "حِنْطَ": 4074,
      "كِفَا": 4075,
      "لِلرَّ": 4076,
      "وَتَرَكَ": 4077,
      "سِيِّ": 4078,
      "يَمْتَنِ": 4079,
      "الْأَجْنَبِيِّ": 4080,
      "مَأْمُو": 4081,
      "سُفْيَانُ": 4082,
      "يَتَعَيَّنُ": 4083,
      "عَصَ": 4084,
      "عَمِلَ": 4085,
      "تَطْ": 4086,
      "قَرَاءِ": 4087,
      "فَكَ": 4088,
      "بْكِي": 4089,
      "فَاءُ": 4090,
      "حِرْ": 4091,
      "حُدُو": 4092,
      "حَالِهِ": 4093,
      "أَرْضٍ": 4094,
      "تَأْوِي": 4095,
      "الْكَفَا": 4096,
      "الْمَوْهُو": 4097,
      "يَقْبِ": 4098,
      "رِوَايَةٍ": 4099,
      "حَرْبِي": 4100,
      "وَرَثَتِهِ": 4101,
      "الْوُجُوبِ": 4102,
      "لِفِ": 4103,
      "لِسُ": 4104,
      "فَهَا": 4105,
      "مُعَ": 4106,
      "كَمِ": 4107,
      "عِمَا": 4108,
      "ذَكَّ": 4109,
      "رَاجُ": 4110,
      "أُمٍّ": 4111,
      "عَبْدَهُ": 4112,
      "خَمْسِ": 4113,
      "فِعْلُ": 4114,
      "عَيَّنَ": 4115,
      "فُوا": 4116,
      "امْرَأَةٌ": 4117,
      "قَدَرَ": 4118,
      "بَيِّنَةِ": 4119,
      "مَسْجِدٍ": 4120,
      "يٍ": 4121,
      "الْمَصْ": 4122,
      "إِبْرَاهِيمَ": 4123,
      "لِيمِ": 4124,
      "وَأَرَادَ": 4125,
      "أُو": 4126,
      "لِلضَّ": 4127,
      "يَقْتُ": 4128,
      "الْمَذْهَبُ": 4129,
      "أَفْتَي": 4130,
      "الْقُدْ": 4131,
      "جَوَابُ": 4132,
      "الْمَعْرُو": 4133,
      "الْمُسْتَوْ": 4134,
      "نَظَرَ": 4135,
      "عُرْفًا": 4136,
      "الذِّمِّ": 4137,
      "الْقُرْآنِ": 4138,
      "السَّابِقِ": 4139,
      "لِبِ": 4140,
      "لِأَحَدِهِمَا": 4141,
      "مُجَرَّ": 4142,
      "وَابُ": 4143,
      "فَانِ": 4144,
      "ضَعُ": 4145,
      "وَالْجَ": 4146,
      "غَيُّ": 4147,
      "يِّدِ": 4148,
      "عِنْدَهُمَا": 4149,
      "يَلْزَمْهُ": 4150,
      "الْأَصَحُّ": 4151,
      "عَقِدُ": 4152,
      "الْمُعْتَمَدِ": 4153,
      "الزُّهْ": 4154,
      "حَةَ": 4155,
      "حَيَوَا": 4156,
      "تُعْ": 4157,
      "قُهَا": 4158,
      "فِيهِمْ": 4159,
      "مَعَهُمْ": 4160,
      "النَّسَبِ": 4161,
      "الْوَلِيِّ": 4162,
      "خَافَ": 4163,
      "لُوهُ": 4164,
      "الْقَطْ": 4165,
      "وُجُوبًا": 4166,
      "الْكَرَا": 4167,
      "السُّدُ": 4168,
      "أَرْبَعَةِ": 4169,
      "مُتَّفَ": 4170,
      "جْتَهِ": 4171,
      "وَنَحْوُهُ": 4172,
      "الدَّعْوَي": 4173,
      "حَّ": 4174,
      "لَكُمْ": 4175,
      "لِاسْتِ": 4176,
      "مُسْ": 4177,
      "حَةٍ": 4178,
      "دَمِ": 4179,
      "رِفَةِ": 4180,
      "سَحَ": 4181,
      "سْمِ": 4182,
      "يُضَ": 4183,
      "كْفِي": 4184,
      "شْتُ": 4185,
      "حَادِ": 4186,
      "وَأَنَا": 4187,
      "دَارَ": 4188,
      "الْحَدُّ": 4189,
      "وَلَدٌ": 4190,
      "الصَّلَاةَ": 4191,
      "مُنْتَ": 4192,
      "الْمَشْهُورِ": 4193,
      "حِيَ": 4194,
      "وَطَ": 4195,
      "وَظَاهِرُهُ": 4196,
      "بِالثَّمَنِ": 4197,
      "مِثَا": 4198,
      "رَوْ": 4199,
      "نَانِ": 4200,
      "كُرْ": 4201,
      "زَمَنِ": 4202,
      "وَالْحَاصِلُ": 4203,
      "دَامَ": 4204,
      "وَلَمَّا": 4205,
      "أَحَدًا": 4206,
      "يَتَحَقَّ": 4207,
      "مَعْنًي": 4208,
      "الْعِوَ": 4209,
      "وَلِذَلِكَ": 4210,
      "اسْتَحَقَّ": 4211,
      "أَكْثَرِ": 4212,
      "مَحْرَ": 4213,
      "الطَّلَاقُ": 4214,
      "الطِّ": 4215,
      "يُسْتَحَبُّ": 4216,
      "الْمِلْكَ": 4217,
      "سُلَيْمَانَ": 4218,
      "رُكُو": 4219,
      "ذَاكَ": 4220,
      "الْمَحَلِّ": 4221,
      "قِلَ": 4222,
      "وَالْبَ": 4223,
      "دَاخِ": 4224,
      "فَأَخَذَ": 4225,
      "الْقَبُو": 4226,
      "حَيْضَ": 4227,
      "مَرَضٍ": 4228,
      "غُسْ": 4229,
      "بِإِسْ": 4230,
      "صَالِحٍ": 4231,
      "أَصَابَ": 4232,
      "جُعِلَ": 4233,
      "بِاَللَّهِ": 4234,
      "خَاصَّةً": 4235,
      "ارْ": 4236,
      "وَكَانَتْ": 4237,
      "الْأَيْ": 4238,
      "عَتِهِ": 4239,
      "مَلَهُ": 4240,
      "بَلَةِ": 4241,
      "مَالِي": 4242,
      "إعَا": 4243,
      "سَرَقَ": 4244,
      "هَجِ": 4245,
      "جَرِ": 4246,
      "كِنَا": 4247,
      "حُصُولِ": 4248,
      "ئِمَّةِ": 4249,
      "تَالِ": 4250,
      "الْعَمَلُ": 4251,
      "الصَّحَا": 4252,
      "نُونِ": 4253,
      "دِرْهَمٌ": 4254,
      "أَمَةٍ": 4255,
      "أَمَرَهُ": 4256,
      "أَخْبَرَنِي": 4257,
      "لِكُلٍّ": 4258,
      "يُجْبَرُ": 4259,
      "مَسْأَلَةُ": 4260,
      "إحْدَي": 4261,
      "دِيَةِ": 4262,
      "الدَّارَ": 4263,
      "فَلِهَذَا": 4264,
      "نَافِعٍ": 4265,
      "عُمْرَةٍ": 4266,
      "مَشْهُو": 4267,
      "قَبُولِ": 4268,
      "الْحَدَثِ": 4269,
      "الْمُؤْمِ": 4270,
      "تَجُوزُ": 4271,
      "تَعَلَّقَ": 4272,
      "وَانِ": 4273,
      "لَاكِ": 4274,
      "مْسُ": 4275,
      "سَنُ": 4276,
      "سَخُ": 4277,
      "خْتُ": 4278,
      "بَابُ": 4279,
      "غَصَبَ": 4280,
      "الْقَصْ": 4281,
      "الدَّرَاهِ": 4282,
      "أَقْوَي": 4283,
      "جَوَازُ": 4284,
      "سَائِلِ": 4285,
      "لَفْظ": 4286,
      "أُجْرَةُ": 4287,
      "نِكَاحُ": 4288,
      "مَفْعُو": 4289,
      "لِلْأَبِ": 4290,
      "الْعُمْرَةِ": 4291,
      "إيَّاهُ": 4292,
      "لَبِ": 4293,
      "وَهُمَا": 4294,
      "لِعُ": 4295,
      "فَمِنْ": 4296,
      "فَقِي": 4297,
      "وَاخْتَا": 4298,
      "كَلْ": 4299,
      "يُبْ": 4300,
      "صِيَا": 4301,
      "الْمَوْضِ": 4302,
      "الصَّا": 4303,
      "اُعْتُ": 4304,
      "قِيَامِ": 4305,
      "الْمَنْعِ": 4306,
      "نَصِيبِ": 4307,
      "يُسَمَّي": 4308,
      "الْفَسْخِ": 4309,
      "آدَمِي": 4310,
      "الصَّغِيرِ": 4311,
      "وَخُ": 4312,
      "بِكَذَا": 4313,
      "بَرِئَ": 4314,
      "سَيْنِ": 4315,
      "دَّهُ": 4316,
      "سَادِ": 4317,
      "عِيرِ": 4318,
      "دُوِّ": 4319,
      "مٌّ": 4320,
      "السَّلَامُ": 4321,
      "يَنْوِ": 4322,
      "الْكَفِي": 4323,
      "فُلَانًا": 4324,
      "الشَّرْعِ": 4325,
      "كَثِيرًا": 4326,
      "عَلِمْت": 4327,
      "الرَّاهِنِ": 4328,
      "فَجَاءَ": 4329,
      "حَةً": 4330,
      "يُنَ": 4331,
      "أَنَّهُمَا": 4332,
      "أَنْكَرَ": 4333,
      "سِخَ": 4334,
      "بَأَ": 4335,
      "بَيْرِ": 4336,
      "وَيَقْ": 4337,
      "وَيُقَالُ": 4338,
      "الشَّعْ": 4339,
      "الْحَافِ": 4340,
      "الْمَاءُ": 4341,
      "ضَّأَ": 4342,
      "طَلَبِ": 4343,
      "مَمْنُو": 4344,
      "وَاضِحٌ": 4345,
      "مَضْمُو": 4346,
      "أَنّ": 4347,
      "لِآخَرَ": 4348,
      "لِوُجُودِ": 4349,
      "مَسَّ": 4350,
      "رَجَّ": 4351,
      "يَظْهَ": 4352,
      "يَطْلُ": 4353,
      "كَلُ": 4354,
      "الْمَهْرِ": 4355,
      "جِهُ": 4356,
      "بَعْدَمَا": 4357,
      "وَاللَّ": 4358,
      "اسْمُ": 4359,
      "السَّلَمِ": 4360,
      "أَهْلَ": 4361,
      "كَافِرٍ": 4362,
      "كَثِيرٍ": 4363,
      "حَسَنٌ": 4364,
      "وَقَبْلَ": 4365,
      "سْتَا": 4366,
      "صْرِي": 4367,
      "عَاصِ": 4368,
      "وَأَعْ": 4369,
      "صِلُ": 4370,
      "وَالرِّ": 4371,
      "وَيُجْ": 4372,
      "أَشْهَبُ": 4373,
      "وَقْتٍ": 4374,
      "جَمِيعُ": 4375,
      "رَدُّهُ": 4376,
      "طْلَاقِ": 4377,
      "الْغُرَمَاءِ": 4378,
      "بَيَانُ": 4379,
      "مَوْضِعِ": 4380,
      "الْأَرْبَعَةِ": 4381,
      "هِشَامٍ": 4382,
      "وًا": 4383,
      "قَلِّ": 4384,
      "كَي": 4385,
      "دَمَ": 4386,
      "بْرَاءِ": 4387,
      "فَاتِ": 4388,
      "طَلُ": 4389,
      "دُونَهُ": 4390,
      "وَتَعَ": 4391,
      "وَتَعْ": 4392,
      "مِلْكٍ": 4393,
      "الْآمِ": 4394,
      "الْوَلَدَ": 4395,
      "فِّيَ": 4396,
      "الْمَذْكُورُ": 4397,
      "وَلَكِنَّ": 4398,
      "أَيِّ": 4399,
      "عَقَدَ": 4400,
      "لِهَذَا": 4401,
      "مَنَعَ": 4402,
      "بِجَمِيعِ": 4403,
      "بْسِ": 4404,
      "سَرَ": 4405,
      "أَوْجَهُ": 4406,
      "الْمُتَعَ": 4407,
      "رَادِ": 4408,
      "جِبَ": 4409,
      "اللَّفْظِ": 4410,
      "وَأَقَرَّ": 4411,
      "الْإِمْ": 4412,
      "الصَّوْ": 4413,
      "يَتَيْنِ": 4414,
      "ثَلَاثِينَ": 4415,
      "امْرَأَتِهِ": 4416,
      "الرُّكُو": 4417,
      "عَمَلِهِ": 4418,
      "الْخَمْرِ": 4419,
      "يُقْتَلُ": 4420,
      "سُبْحَانَهُ": 4421,
      "مُتَّفَقٌ": 4422,
      "عَشَ": 4423,
      "عَمَّنْ": 4424,
      "فَتَا": 4425,
      "سَلَا": 4426,
      "يُتَّ": 4427,
      "الْمُبْ": 4428,
      "قْرِ": 4429,
      "حِفْظِ": 4430,
      "وَالْآخَرُ": 4431,
      "تَاعِ": 4432,
      "جَاوَزَ": 4433,
      "عِنْدَهُمْ": 4434,
      "اسْمِ": 4435,
      "السَّفَرِ": 4436,
      "فَقَالَتْ": 4437,
      "السُّبْكِي": 4438,
      "الْمُوصِي": 4439,
      "صَحِيحًا": 4440,
      "الْمَأْذُو": 4441,
      "الْبَيِّنَةُ": 4442,
      "وَكَّلَ": 4443,
      "إجْمَا": 4444,
      "الْإِسْنَوِيُّ": 4445,
      "مِقْدَا": 4446,
      "يَطْ": 4447,
      "مُبْتَ": 4448,
      "حَظ": 4449,
      "دَوَا": 4450,
      "سَمَ": 4451,
      "أَنْفُ": 4452,
      "بِيَّةِ": 4453,
      "جُرْ": 4454,
      "الْإِجْ": 4455,
      "مِنْهُنَّ": 4456,
      "دَاءُ": 4457,
      "ذِرَا": 4458,
      "قَوْلِهِمْ": 4459,
      "وَتَعَا": 4460,
      "رَجُلَيْنِ": 4461,
      "كَالْإِ": 4462,
      "فَرْضٍ": 4463,
      "النِّيَّةِ": 4464,
      "الْعِتْقُ": 4465,
      "وَضْعِ": 4466,
      "اجْتَ": 4467,
      "وٌ": 4468,
      "أَشَ": 4469,
      "مِنِّي": 4470,
      "يَيْنِ": 4471,
      "مْرَا": 4472,
      "لْقِ": 4473,
      "يُبَيِّ": 4474,
      "قَوْلَانِ": 4475,
      "جَرَي": 4476,
      "تُهُمَا": 4477,
      "الْمَسَا": 4478,
      "وَأَشْ": 4479,
      "الْإِحْ": 4480,
      "التَّخْ": 4481,
      "الْحَقَّ": 4482,
      "عِيدِ": 4483,
      "بِالْبَيْعِ": 4484,
      "طُلْ": 4485,
      "وَيُؤْخَذُ": 4486,
      "شِهَا": 4487,
      "وَلِذَا": 4488,
      "الْعُلَ": 4489,
      "حَمْلِ": 4490,
      "يَدْخُلْ": 4491,
      "تَقْدِيرِ": 4492,
      "لِلسَّيِّدِ": 4493,
      "الْجَمِيعِ": 4494,
      "صُدِّقَ": 4495,
      "لَحِ": 4496,
      "عَزْ": 4497,
      "بِهَذِهِ": 4498,
      "بِشَرْطٍ": 4499,
      "حَفْ": 4500,
      "دَمٌ": 4501,
      "رِدْ": 4502,
      "إعْ": 4503,
      "صَفْ": 4504,
      "الْمُخْ": 4505,
      "ضَمِ": 4506,
      "الْحَقِي": 4507,
      "الثِّ": 4508,
      "السَّنَةِ": 4509,
      "الْبَحْ": 4510,
      "عَلَيْكُمْ": 4511,
      "قَامَتْ": 4512,
      "خَمْسَةٍ": 4513,
      "الْوَقْفُ": 4514,
      "خَيْرٌ": 4515,
      "الْمَجْلِسِ": 4516,
      "الْغُسْلِ": 4517,
      "صَدَّقُ": 4518,
      "أَيُّو": 4519,
      "الْمُحَرَّرِ": 4520,
      "السَّبَبِ": 4521,
      "مُعَاوِيَةَ": 4522,
      "الْآخَرَ": 4523,
      "نْيَا": 4524,
      "نْزِي": 4525,
      "لِحَاجَ": 4526,
      "رَزَ": 4527,
      "نَقُولُ": 4528,
      "بَدْ": 4529,
      "الْمُطْلَ": 4530,
      "عُدْ": 4531,
      "ثْرَةِ": 4532,
      "غَسْلِ": 4533,
      "وَيَرْجِعُ": 4534,
      "ضْعِ": 4535,
      "السَّهْ": 4536,
      "الرِّبْحِ": 4537,
      "الْعَامِلِ": 4538,
      "يُمْكِنْ": 4539,
      "تَفْصِي": 4540,
      "الصِّفَةِ": 4541,
      "يَقُومُ": 4542,
      "النِّكَاحُ": 4543,
      "مُتَّصِ": 4544,
      "الْوَجْهَ": 4545,
      "جَمَاعَةٍ": 4546,
      "شَخْصٌ": 4547,
      "مَحَلِّهِ": 4548,
      "كَرَاهَ": 4549,
      "قُطِعَ": 4550,
      "فَأَكْثَرَ": 4551,
      "-(": 4552,
      "أَلُ": 4553,
      "وَصَلَ": 4554,
      "مُنَ": 4555,
      "بَرُّ": 4556,
      "مَالُهُ": 4557,
      "كَرَّ": 4558,
      "كَارِ": 4559,
      "جَيْ": 4560,
      "الْمَرَضِ": 4561,
      "دَارِهِ": 4562,
      "وَيَحْتَمِلُ": 4563,
      "فَيَبْ": 4564,
      "الْبَيِّ": 4565,
      "نُونٌ": 4566,
      "بَلَدِ": 4567,
      "الْمَنْهَجِ": 4568,
      "مُتَمَ": 4569,
      "عَقْدٍ": 4570,
      "عَلِيُّ": 4571,
      "مَهْرُ": 4572,
      "وَالْأَصَحُّ": 4573,
      "لِلْإِمَامِ": 4574,
      "الرُّجُوعِ": 4575,
      "الْوَاقِفِ": 4576,
      "سَعْدٍ": 4577,
      "وَيَحْرُمُ": 4578,
      "الْمَاوَرْدِيُّ": 4579,
      "وَفُ": 4580,
      "لِزَيْدٍ": 4581,
      "فَكَذَا": 4582,
      "رِطْ": 4583,
      "يِهِ": 4584,
      "سُمِّ": 4585,
      "دِيدِ": 4586,
      "وَيَدْ": 4587,
      "الصَّبِيِّ": 4588,
      "الشَّهْرِ": 4589,
      "مِلْكَ": 4590,
      "أَخْذِهِ": 4591,
      "ثُلُثَ": 4592,
      "وَأُخْ": 4593,
      "مَرْفُو": 4594,
      "جِنْسِهِ": 4595,
      "حَاجَةَ": 4596,
      "الْقِيَامَةِ": 4597,
      "مُعْسِ": 4598,
      "اللَّيْلِ": 4599,
      "النَّفَقَةِ": 4600,
      "وَيْهِ": 4601,
      "لِأَحَدٍ": 4602,
      "بِمِثْلِهِ": 4603,
      "قَرَأَ": 4604,
      "رَكِ": 4605,
      "يَزْ": 4606,
      "يَرَي": 4607,
      "فَقَا": 4608,
      "نِسَا": 4609,
      "سَمَا": 4610,
      "نَاهَا": 4611,
      "أَنْبَأَ": 4612,
      "كُتُ": 4613,
      "رِيرِ": 4614,
      "لِأَنَّا": 4615,
      "يَاءَ": 4616,
      "الْعَزِي": 4617,
      "غَسْ": 4618,
      "الْإِشْ": 4619,
      "قُوَّةِ": 4620,
      "الْفَقِي": 4621,
      "يَعْقُو": 4622,
      "بِأَنَّهَا": 4623,
      "يُعْرَفُ": 4624,
      "النَّارِ": 4625,
      "وَكِيلِ": 4626,
      "يَمْلِكُهُ": 4627,
      "ذِكْرُ": 4628,
      "شَهَادَتُهُ": 4629,
      "قَصْدِ": 4630,
      "الْمُكَاتَبُ": 4631,
      "خُرُوجِهِ": 4632,
      "الْبُخَارِيُّ": 4633,
      "خْتُلِفَ": 4634,
      "الْتَ": 4635,
      "بِحُكْمِ": 4636,
      "مِسْ": 4637,
      "رَحْ": 4638,
      "رَفَعَ": 4639,
      "رِضَا": 4640,
      "فَارَقَ": 4641,
      "خَبَرُ": 4642,
      "الْمَطْلُو": 4643,
      "أُذُ": 4644,
      "الْعَفْ": 4645,
      "خُذُ": 4646,
      "زِنًا": 4647,
      "بُوا": 4648,
      "صِحَّةُ": 4649,
      "كَلَامُهُ": 4650,
      "الطَّعَامِ": 4651,
      "يَسْتَوْ": 4652,
      "يُسَلِّ": 4653,
      "نِكَاحِ": 4654,
      "عُمْرَةِ": 4655,
      "ذُّرِ": 4656,
      "حَجَرٍ": 4657,
      "عَمُّ": 4658,
      "لِأَهْلِ": 4659,
      "بِالِا": 4660,
      "فَعْ": 4661,
      "فَةً": 4662,
      "هَادِ": 4663,
      "سْخَ": 4664,
      "ئُ": 4665,
      "يُحْتَمَلُ": 4666,
      "ذَهَا": 4667,
      "نَادِ": 4668,
      "نَاءِ": 4669,
      "وَالْأَصْلُ": 4670,
      "حَارِ": 4671,
      "لِلْعَبْدِ": 4672,
      "مَعْصِيَ": 4673,
      "حُكْمِهِ": 4674,
      "وَجَعَلَ": 4675,
      "وَجَدَهُ": 4676,
      "قْتَضَي": 4677,
      "غَيْرَهَا": 4678,
      "أَصْحَابِ": 4679,
      "تَرَكَهُ": 4680,
      "تَزَوَّجَهَا": 4681,
      "عْتَاقِ": 4682,
      "وَأَخْبَرَ": 4683,
      "مَرْأَةِ": 4684,
      "الرَّأْسِ": 4685,
      "ثَيْ": 4686,
      "عَبَّرَ": 4687,
      "رَتَيْنِ": 4688,
      "وَاعِ": 4689,
      "نَاقِ": 4690,
      "جِرَ": 4691,
      "كْنَي": 4692,
      "أُصْبُ": 4693,
      "الْحَكَمِ": 4694,
      "صَالَحَ": 4695,
      "إلَيَّ": 4696,
      "شَايِ": 4697,
      "وَتَرْ": 4698,
      "الْحَاضِ": 4699,
      "شَرَعَ": 4700,
      "بِعَهُ": 4701,
      "زَوْجُهَا": 4702,
      "يَفْعَلْ": 4703,
      "لَفْظُ": 4704,
      "جِنَايَةِ": 4705,
      "يُحَدُّ": 4706,
      "جُمْلَةِ": 4707,
      "نَانِيرَ": 4708,
      "وَيُمْكِنُ": 4709,
      "غٍ": 4710,
      "النّ": 4711,
      "عَلُهُ": 4712,
      "تَضْ": 4713,
      "فَوَجَبَ": 4714,
      "مُقَيَّ": 4715,
      "رِقَةِ": 4716,
      "قُبِلَ": 4717,
      "كِسْ": 4718,
      "بَيْتِهِ": 4719,
      "جَارِ": 4720,
      "مِيرِ": 4721,
      "عِيَّةِ": 4722,
      "وَالنِّ": 4723,
      "الْخَصْ": 4724,
      "ثِيَا": 4725,
      "مَحَلٍّ": 4726,
      "يُؤَثِّ": 4727,
      "عَقْدُ": 4728,
      "الْعِتْقَ": 4729,
      "سَأَلَهُ": 4730,
      "مَشْرُو": 4731,
      "خَوْفِ": 4732,
      "انْقِضَاءِ": 4733,
      "الْمَوَّازِ": 4734,
      "وَنَحْوَهُ": 4735,
      "وَتَعَالَي": 4736,
      "عَلَا": 4737,
      "لِأَبِي": 4738,
      "نَّةُ": 4739,
      "سَوْ": 4740,
      "يُتَوَ": 4741,
      "يُتَصَوَّرُ": 4742,
      "جِزْ": 4743,
      "الْأَبَ": 4744,
      "زَوَا": 4745,
      "طَعْ": 4746,
      "الْعَبَّا": 4747,
      "طَائِ": 4748,
      "الزَّائِ": 4749,
      "وِيّ": 4750,
      "الْقَاتِ": 4751,
      "مَاتَتْ": 4752,
      "أَلْفًا": 4753,
      "يُمْكِ": 4754,
      "وَضَعَ": 4755,
      "يَشْمَلُ": 4756,
      "الْمُسْتَأْجِرِ": 4757,
      "الزَّكَاةِ": 4758,
      "وَاسْتِ": 4759,
      "الْجَمَاعَةِ": 4760,
      "صَّا": 4761,
      "يًا": 4762,
      "أَمَانَ": 4763,
      "عَمِّ": 4764,
      "بِفِعْلِ": 4765,
      "تَخَ": 4766,
      "مُصَ": 4767,
      "كَةِ": 4768,
      "يُغَ": 4769,
      "اللَّحْ": 4770,
      "وَالسُّ": 4771,
      "فَيَصِحُّ": 4772,
      "مَرَضِهِ": 4773,
      "كِينَ": 4774,
      "الضَّرَرِ": 4775,
      "الْأَمْرُ": 4776,
      "شَهْرًا": 4777,
      "إقْرَارُهُ": 4778,
      "جَعَلَهُ": 4779,
      "مُدَّةً": 4780,
      "دُخُولِهِ": 4781,
      "غَلَبَ": 4782,
      "يَتَوَقَّفُ": 4783,
      "الْمِلْكُ": 4784,
      "رَجْعِي": 4785,
      "نًّا": 4786,
      "مَقَامَ": 4787,
      "بِمَوْتِ": 4788,
      "تَلْزَمُهُ": 4789,
      "مُشَا": 4790,
      "بَعَّ": 4791,
      "جَبْ": 4792,
      "الْمُرْتَ": 4793,
      "فْهُو": 4794,
      "سَارِ": 4795,
      "خَاص": 4796,
      "وَتَحْ": 4797,
      "الثَّمَنُ": 4798,
      "بَيِّنَةُ": 4799,
      "الْمُؤَلِّ": 4800,
      "طَيْ": 4801,
      "بِمَوْتِهِ": 4802,
      "هَمَ": 4803,
      "جَمَعَ": 4804,
      "رَاجَ": 4805,
      "قِرَاءَةِ": 4806,
      "شَهُّ": 4807,
      "نِيَّةُ": 4808,
      "غَنِي": 4809,
      "قَبْلُ": 4810,
      "الْوَصْ": 4811,
      "وَكَوْ": 4812,
      "يُونِ": 4813,
      "فَقَتَ": 4814,
      "هُودِ": 4815,
      "ظُلْ": 4816,
      "أَحَدُكُمْ": 4817,
      "الْآخِ": 4818,
      "يَسْجُ": 4819,
      "زَوْجَتَهُ": 4820,
      "الْمَذْكُورَةِ": 4821,
      "حُرِّيَّ": 4822,
      "أَجَلٍ": 4823,
      "الزِّيَادَةِ": 4824,
      "كَّا": 4825,
      "ّةَ": 4826,
      "أَزْ": 4827,
      "الْبَعْضِ": 4828,
      "مَلَةِ": 4829,
      "بِمَكَّةَ": 4830,
      "قَلُّ": 4831,
      "هْلِ": 4832,
      "لِلْحَ": 4833,
      "الْعَمْ": 4834,
      "الْحَدِّ": 4835,
      "بِالْفِعْلِ": 4836,
      "الْبَغَ": 4837,
      "قْتَضِي": 4838,
      "فِعْلُهُ": 4839,
      "عَيْبٌ": 4840,
      "وَبِهَذَا": 4841,
      "مَذْهَ": 4842,
      "وَسُئِلَ": 4843,
      "وَعِنْدَهُمَا": 4844,
      "صِفَةٍ": 4845,
      "الْوَرَثَةُ": 4846,
      "يَرْجِعْ": 4847,
      "الْمُعَيَّنِ": 4848,
      "الْجُمْلَةِ": 4849,
      "رْمِذِيُّ": 4850,
      "وَثَ": 4851,
      "لِخَبَرِ": 4852,
      "بِخَ": 4853,
      "فَشَ": 4854,
      "فِدْ": 4855,
      "حِبُّ": 4856,
      "بُرْ": 4857,
      "سِخُ": 4858,
      "وَأَمْ": 4859,
      "فَيَلْزَمُهُ": 4860,
      "الْحَاجِبِ": 4861,
      "تَبَرُّ": 4862,
      "وَقْتُ": 4863,
      "خَمْسَةً": 4864,
      "الْحِلِّ": 4865,
      "سَيِّدُهُ": 4866,
      "قِسْمَةِ": 4867,
      "مَعْلُومٍ": 4868,
      "أَصَحُّ": 4869,
      "وَيَأْتِي": 4870,
      "لِصَاحِبِ": 4871,
      "مَعِي": 4872,
      "بِمِثْلِ": 4873,
      "قَتِهِ": 4874,
      "كَذِ": 4875,
      "دَرَ": 4876,
      "طَوَا": 4877,
      "وَأَسْ": 4878,
      "الْحَيَا": 4879,
      "وَلَدَ": 4880,
      "الْقَدِي": 4881,
      "ثَلَاثٍ": 4882,
      "جِيزِ": 4883,
      "يَقْضِي": 4884,
      "أَسْقَطَ": 4885,
      "بِحَسَبِ": 4886,
      "زِيَادَتِهِ": 4887,
      "وَغَيْرِهِمْ": 4888,
      "الْخَارِ": 4889,
      "صَدَّقَهُ": 4890,
      "ذَهَبٍ": 4891,
      "أَجْزَأَهُ": 4892,
      "تُوُفِّيَ": 4893,
      "طَلُقَتْ": 4894,
      "الْبَيِّنَةِ": 4895,
      "الْعَزِيزِ": 4896,
      "وَمِنْهُمْ": 4897,
      "مَنَافِ": 4898,
      "رَمْ": 4899,
      "رَضُ": 4900,
      "مُشْتَرَ": 4901,
      "وَانَ": 4902,
      "سَتْ": 4903,
      "يُبْطِ": 4904,
      "رَاهَا": 4905,
      "قْبَلُ": 4906,
      "دَّتْ": 4907,
      "دْرِ": 4908,
      "قُمْ": 4909,
      "نِيَّةٌ": 4910,
      "وَإِلَي": 4911,
      "النَّحْرِ": 4912,
      "عِيسَي": 4913,
      "أَمْرٍ": 4914,
      "كُنْتُ": 4915,
      "قِيمَتِهَا": 4916,
      "أَكْلِ": 4917,
      "مَالِكًا": 4918,
      "صَاحِبَ": 4919,
      "أَرْبَعِينَ": 4920,
      "صَدَّقَ": 4921,
      "الْحَدِيثَ": 4922,
      "الْأُجْرَةِ": 4923,
      "بَقِيَّةِ": 4924,
      "جَابِرٍ": 4925,
      "الْغَائِبِ": 4926,
      "وَعَدَمِ": 4927,
      "بِطَرِيقِ": 4928,
      "تَرِكَ": 4929,
      "مِلُهُ": 4930,
      "مِنًي": 4931,
      "مُقَابِ": 4932,
      "وَالِي": 4933,
      "هَاشِ": 4934,
      "يُعِي": 4935,
      "رُبُ": 4936,
      "هَذَيْنِ": 4937,
      "رَّةَ": 4938,
      "بِيرُ": 4939,
      "حُرٍّ": 4940,
      "سُوطِ": 4941,
      "شِرَاءِ": 4942,
      "يَمْلِ": 4943,
      "أَرْبَعَةَ": 4944,
      "يُمْنَعُ": 4945,
      "تَرْكُ": 4946,
      "بَدَلَ": 4947,
      "شَهَادَةُ": 4948,
      "احْتِرَا": 4949,
      "فَائِدَةٌ": 4950,
      "انْقِطَا": 4951,
      "الدَّيْنَ": 4952,
      "الْجَمْعِ": 4953,
      "أَفَادَهُ": 4954,
      "الْوَاحِدِ": 4955,
      "الْإِذْنِ": 4956,
      "الْقَضَاءُ": 4957,
      "يُصَدَّقُ": 4958,
      "وَجَازَ": 4959,
      "مَلَّ": 4960,
      "مُسَا": 4961,
      "وَاسِ": 4962,
      "مِنْكُمْ": 4963,
      "كَاتِ": 4964,
      "عَاءِ": 4965,
      "الْإِسْلَا": 4966,
      "الْحَيَوَا": 4967,
      "النَّوْ": 4968,
      "النَّهْ": 4969,
      "نْدَبُ": 4970,
      "تَقَدُّ": 4971,
      "كِينِ": 4972,
      "عَلَيْك": 4973,
      "أَجْرُ": 4974,
      "أَلْفَ": 4975,
      "الْوَارِثُ": 4976,
      "كَوْنِهَا": 4977,
      "تَعْجِي": 4978,
      "لَيْلًا": 4979,
      "عِتْقٍ": 4980,
      "طَالِبٍ": 4981,
      "لَفْظَ": 4982,
      "فَسَدَ": 4983,
      "مَعْلُومٌ": 4984,
      "الْمُرْتَهِنُ": 4985,
      "تَعَلُّقِ": 4986,
      "مَبْنِيٌّ": 4987,
      "يُبَاعُ": 4988,
      "بُطْلَانِ": 4989,
      "بَعَثَ": 4990,
      "شِهَابٍ": 4991,
      "أَجَازَ": 4992,
      "الْقَدْرِ": 4993,
      "لِجَوَازِ": 4994,
      "هِمَ": 4995,
      "بَذْ": 4996,
      "دَثَ": 4997,
      "إشْ": 4998,
      "لَّةُ": 4999,
      "سَجَدَ": 5000,
      "يُكْ": 5001,
      "هَقِيُّ": 5002,
      "عِبْ": 5003,
      "نُقْصَا": 5004,
      "دَّدَ": 5005,
      "عَادَةِ": 5006,
      "بَعْضَهُ": 5007,
      "لِيٍّ": 5008,
      "صَائِ": 5009,
      "دِينَ": 5010,
      "وَلَهَا": 5011,
      "ظَهْرِ": 5012,
      "فَأَوْ": 5013,
      "يَتَنَا": 5014,
      "وَتَقْ": 5015,
      "أَصْبَ": 5016,
      "وُجُوبَ": 5017,
      "وَمَاتَ": 5018,
      "ئِهِمْ": 5019,
      "خَمْسَةُ": 5020,
      "وَأَخْرَجَ": 5021,
      "وَهَكَذَا": 5022,
      "سُنَّةٌ": 5023,
      "حَيَاتِهِ": 5024,
      "قُدِّمَ": 5025,
      "مّا": 5026,
      "بِقِيمَتِهِ": 5027,
      "كَفِي": 5028,
      "حَدُّ": 5029,
      "بْحُ": 5030,
      "يُثْ": 5031,
      "الْمُسْ": 5032,
      "الْمُخْتَ": 5033,
      "دَّعِيَ": 5034,
      "كْتِ": 5035,
      "بَانِ": 5036,
      "لِلْأَوَّلِ": 5037,
      "أُعْ": 5038,
      "وُلِ": 5039,
      "الْقَرْ": 5040,
      "ذَكَرًا": 5041,
      "شُرْ": 5042,
      "ثَلَاثِ": 5043,
      "اُشْتُ": 5044,
      "مَحْذُو": 5045,
      "بِنْتَ": 5046,
      "مَيْتَ": 5047,
      "وَجْهِهِ": 5048,
      "يَخْتَصُّ": 5049,
      "طَعَامٍ": 5050,
      "الْقِصَاصُ": 5051,
      "الُ": 5052,
      "مَدَ": 5053,
      "تَحِلُّ": 5054,
      "نَصُّهُ": 5055,
      "بَسَ": 5056,
      "كَرُ": 5057,
      "سَخِ": 5058,
      "قَاضٍ": 5059,
      "ذَفَ": 5060,
      "فِهَا": 5061,
      "كِمَ": 5062,
      "تَابِ": 5063,
      "وَأَجْ": 5064,
      "يَانُ": 5065,
      "وَّمُ": 5066,
      "شَاءِ": 5067,
      "فَيَقُولُ": 5068,
      "أَرْشِ": 5069,
      "أَمْرٌ": 5070,
      "الْحَاجَةِ": 5071,
      "صُلُ": 5072,
      "ظَاهِرًا": 5073,
      "يَرْتَ": 5074,
      "الْغَصْبِ": 5075,
      "اشْتَرَ": 5076,
      "وَبِنْ": 5077,
      "ظْهَرِ": 5078,
      "بَدَلِ": 5079,
      "نَصِيبَهُ": 5080,
      "عَامِلِ": 5081,
      "عَمَلًا": 5082,
      "رَكْعَةً": 5083,
      "الْيَمِينُ": 5084,
      "الثَّلَاثِ": 5085,
      "لُزُومِ": 5086,
      "الْفِطْرِ": 5087,
      "بِإِقْرَارِهِ": 5088,
      "أَرَي": 5089,
      "وَبِالْ": 5090,
      "وَعِشْرُونَ": 5091,
      "لِقَ": 5092,
      "تَزْوِي": 5093,
      "مُجْ": 5094,
      "مُضِيِّ": 5095,
      "حَذْ": 5096,
      "يُطْلَ": 5097,
      "جَرْ": 5098,
      "دِبَ": 5099,
      "عَايَةِ": 5100,
      "صِفَةِ": 5101,
      "يَاتِ": 5102,
      "دِيٍّ": 5103,
      "ءَهُ": 5104,
      "الرَّكْ": 5105,
      "خَاطَ": 5106,
      "زِيَّةِ": 5107,
      "ابْنِهِ": 5108,
      "أَشْهَبَ": 5109,
      "الْوَاجِبِ": 5110,
      "مُسْتَوْ": 5111,
      "مُسْتَقِ": 5112,
      "تَعْرِي": 5113,
      "أَمَتِهِ": 5114,
      "يُعْتَقُ": 5115,
      "عُرْوَةَ": 5116,
      "يَخْرُجْ": 5117,
      "الصَّحِيحُ": 5118,
      "الْحَسَنُ": 5119,
      "لِكَوْنِ": 5120,
      "وَلَكِنَّهُ": 5121,
      "الظُّهْرِ": 5122,
      "وَقَضِيَّةُ": 5123,
      "ثَيْنِ": 5124,
      "الضَّا": 5125,
      "وَقُ": 5126,
      "لِانْتِ": 5127,
      "بِالدَّيْنِ": 5128,
      "قَبِي": 5129,
      "قَضَتْ": 5130,
      "مَارِ": 5131,
      "قَاءِ": 5132,
      "قَوْمٍ": 5133,
      "لُهُمْ": 5134,
      "بَيْعَ": 5135,
      "نِيَّةٍ": 5136,
      "أُخِذَ": 5137,
      "سُكُو": 5138,
      "الرَّدُّ": 5139,
      "مُوصَي": 5140,
      "أَمْرِ": 5141,
      "مِهِمْ": 5142,
      "ثَلَاثُ": 5143,
      "النِّسَاءِ": 5144,
      "ثَانِ": 5145,
      "جَازَةِ": 5146,
      "الْحِنْ": 5147,
      "نَظَرًا": 5148,
      "يُصَلِّيَ": 5149,
      "رَكْعَةٍ": 5150,
      "آخِرِهِ": 5151,
      "تَمْلِي": 5152,
      "الْفَسْخُ": 5153,
      "ثُونَ": 5154,
      "ثَانِيًا": 5155,
      "يَقْدِرُ": 5156,
      "مَرْفُوعًا": 5157,
      "أَغْ": 5158,
      "بِنِيَّةِ": 5159,
      "نَجْ": 5160,
      "نَسِيَ": 5161,
      "حَلَا": 5162,
      "بْعِ": 5163,
      "هَامِ": 5164,
      "سَرِ": 5165,
      "يُصْ": 5166,
      "قَوْلٍ": 5167,
      "جَمَةِ": 5168,
      "قْهُ": 5169,
      "الْمَمْ": 5170,
      "بَاقٍ": 5171,
      "طَلْحَ": 5172,
      "وَالْأَوَّلُ": 5173,
      "غَزْ": 5174,
      "جُوسِي": 5175,
      "شْتَرَي": 5176,
      "مِلْكًا": 5177,
      "الْمَانِ": 5178,
      "صُلْ": 5179,
      "كِّي": 5180,
      "رَيْجٍ": 5181,
      "بِحَضْ": 5182,
      "مَجْلِ": 5183,
      "مَجْمُو": 5184,
      "يُسَنُّ": 5185,
      "كَثِيرٌ": 5186,
      "الصَّدَقَةِ": 5187,
      "الْتِزَا": 5188,
      "الْإِجَارَةُ": 5189,
      "عَقِيلٍ": 5190,
      "ءًا": 5191,
      "لَغَ": 5192,
      "وَنِصْ": 5193,
      "تَحَقَّ": 5194,
      "رَدَ": 5195,
      "كَفَا": 5196,
      "إدْ": 5197,
      "يُخَ": 5198,
      "الْمُتْ": 5199,
      "قِطُ": 5200,
      "حَالَةِ": 5201,
      "وَالطَّ": 5202,
      "الشَّخْ": 5203,
      "الْقَيْ": 5204,
      "غُسْلِ": 5205,
      "النَّاسَ": 5206,
      "عِتْقُهُ": 5207,
      "الْمُسْلِمُ": 5208,
      "الْفَرْقِ": 5209,
      "الدِّيَةُ": 5210,
      "وَارِثٍ": 5211,
      "احْتِيَا": 5212,
      "وَطْءٍ": 5213,
      "يُسْرَي": 5214,
      "أَخْذُهُ": 5215,
      "بِئْرِ": 5216,
      "الْفَضْلِ": 5217,
      "ضَمِنَهُ": 5218,
      "وَمَعْنَي": 5219,
      "فَهَذِهِ": 5220,
      "مَامُ": 5221,
      "دَنَانِيرَ": 5222,
      "ثُمّ": 5223,
      "لِيلُ": 5224,
      "الْعَرَبِ": 5225,
      "خُنْثَي": 5226,
      "زِدْ": 5227,
      "مُوجِ": 5228,
      "فَأَشْ": 5229,
      "مَعْطُو": 5230,
      "غَيْرِهِمَا": 5231,
      "الدَّفْ": 5232,
      "يَقْصِدْ": 5233,
      "فِعْلٍ": 5234,
      "صَاحِبُهُ": 5235,
      "أَرْبَعَةٍ": 5236,
      "أَرْبَعَةُ": 5237,
      "الرِّقِّ": 5238,
      "الثَّانِيَةُ": 5239,
      "عُبَيْدِ": 5240,
      "إسْقَا": 5241,
      "يَشْتَرِيَ": 5242,
      "فَأَنْتِ": 5243,
      "يَرِدُ": 5244,
      "ذِمِّيٍّ": 5245,
      "مَنْصُورٍ": 5246,
      "الْبَغَوِيّ": 5247,
      "لَقَدْ": 5248,
      "وَلُ": 5249,
      "عَفَّا": 5250,
      "يْلَ": 5251,
      "بِنَقْ": 5252,
      "رَتَّ": 5253,
      "فَلَهَا": 5254,
      "كَنَهُ": 5255,
      "يُقَدَّمُ": 5256,
      "عُرِفَ": 5257,
      "فِقُ": 5258,
      "الْمَضْ": 5259,
      "دُقُ": 5260,
      "بُلُوغِ": 5261,
      "حُصُو": 5262,
      "رِيضَ": 5263,
      "وَإِمَّا": 5264,
      "يَنْفُذُ": 5265,
      "سُؤَ": 5266,
      "الْجَنَا": 5267,
      "شُرِطَ": 5268,
      "الْآدَ": 5269,
      "عَلِيٌّ": 5270,
      "زُولُ": 5271,
      "مُنْفَرِ": 5272,
      "يَقَعْ": 5273,
      "وَرِثَ": 5274,
      "يَأْخُذُهُ": 5275,
      "قَبَضَهُ": 5276,
      "شَهَادَتِهِ": 5277,
      "قَيَّدَ": 5278,
      "التِّجَارَةِ": 5279,
      "الْمَبْسُوطِ": 5280,
      "الْكَلَامُ": 5281,
      "يَلْتَ": 5282,
      "فَخَرَجَ": 5283,
      "مُكَلَّ": 5284,
      "يُحْرِ": 5285,
      "ذَيْ": 5286,
      "نَازَ": 5287,
      "جُلُو": 5288,
      "لِينَ": 5289,
      "الْإِتْ": 5290,
      "التَّدْ": 5291,
      "الْحَنَفِي": 5292,
      "سَاكِ": 5293,
      "وَالشَّا": 5294,
      "خِلَافٍ": 5295,
      "ظُهُورِ": 5296,
      "يَخْلُو": 5297,
      "يِينِ": 5298,
      "بَدَنِهِ": 5299,
      "تَسْقُطُ": 5300,
      "ثَمَنٍ": 5301,
      "يُحْمَلُ": 5302,
      "مَقْبُو": 5303,
      "يَدْخُلَ": 5304,
      "دَلِيلٌ": 5305,
      "أَصْحَابِهِ": 5306,
      "مُعْتَبَ": 5307,
      "قَرِيبًا": 5308,
      "الْأَلْفِ": 5309,
      "الْقِبْلَةِ": 5310,
      "الْوَجْهَيْنِ": 5311,
      "بِدْ": 5312,
      "تَمِ": 5313,
      "رَتَهُ": 5314,
      "بَتَهُ": 5315,
      "عُدُ": 5316,
      "قِرُّ": 5317,
      "الْأَبْ": 5318,
      "وَالْقَ": 5319,
      "حَالَةَ": 5320,
      "غَصْ": 5321,
      "خُلْ": 5322,
      "الشَّكِّ": 5323,
      "مَعْرِفَةِ": 5324,
      "غَيْرِهِمْ": 5325,
      "أَرْضًا": 5326,
      "مَرَضِ": 5327,
      "وَجْهٌ": 5328,
      "وُجُودِهِ": 5329,
      "ظُنُّ": 5330,
      "الْخَطَا": 5331,
      "الْخَبَرِ": 5332,
      "الْأَرْضُ": 5333,
      "عَيْنًا": 5334,
      "يُمْنَي": 5335,
      "تَقْيِي": 5336,
      "الْجِزْ": 5337,
      "امْرَأَتَهُ": 5338,
      "الْمَرْهُو": 5339,
      "يَضْمَ": 5340,
      "يَجْعَلَ": 5341,
      "كَسْبِهِ": 5342,
      "عَامِرٍ": 5343,
      "رَبِّهِ": 5344,
      "مُعَيَّنًا": 5345,
      "أَثَرَ": 5346,
      "وَكَّلَهُ": 5347,
      "عُثْمَانُ": 5348,
      "تَصْحِيحِهِ": 5349,
      "وَيُسْتَحَبُّ": 5350,
      "يُمْكِنُهُ": 5351,
      "ذٌ": 5352,
      "كِيَ": 5353,
      "الذُّ": 5354,
      "وَكَا": 5355,
      "وَكَمَا": 5356,
      "هِّ": 5357,
      "بِأَكْثَرَ": 5358,
      "بْن": 5359,
      "إزَا": 5360,
      "قَاقِ": 5361,
      "تُنْ": 5362,
      "أَيْدِي": 5363,
      "الْأَئِمَّةِ": 5364,
      "لِلْوَرَثَةِ": 5365,
      "وَأَطْلَقَ": 5366,
      "سُجُو": 5367,
      "دَاتِ": 5368,
      "الْحَقُّ": 5369,
      "ذِمَّةِ": 5370,
      "وَيُعْ": 5371,
      "مَرَّةٍ": 5372,
      "الشَّرْطُ": 5373,
      "وُقُوعِ": 5374,
      "الْمَبِيعَ": 5375,
      "الْأَخْذِ": 5376,
      "لَازِمٌ": 5377,
      "اخْتَارَ": 5378,
      "الْجِنْسِ": 5379,
      "لِلْمُسْلِمِينَ": 5380,
      "يَظْهَرْ": 5381,
      "اجْتَمَعَ": 5382,
      "جَّةِ": 5383,
      "يْتَ": 5384,
      "بِرْ": 5385,
      "فَوَّ": 5386,
      "كَرْ": 5387,
      "دَمُ": 5388,
      "ذَبْحِ": 5389,
      "ذَانِ": 5390,
      "الْمُتَأَخِّ": 5391,
      "كْسِ": 5392,
      "حُقُو": 5393,
      "مَنْعُ": 5394,
      "لِلْأُمِّ": 5395,
      "لِيًّا": 5396,
      "التَّحَ": 5397,
      "التَّرِكَةِ": 5398,
      "الْحَرَا": 5399,
      "خُذْ": 5400,
      "الرَّقَبَةِ": 5401,
      "تَقَوِّ": 5402,
      "أَمْوَا": 5403,
      "سِهِمْ": 5404,
      "أَخْبَرَهُ": 5405,
      "أَعْطَا": 5406,
      "كَالْمُ": 5407,
      "الْبَاقِيَ": 5408,
      "عْتِقِ": 5409,
      "النَّاظِ": 5410,
      "الْحِنْطَ": 5411,
      "عَلِيِّ": 5412,
      "كْرِهَ": 5413,
      "يُعَيِّ": 5414,
      "أَبَي": 5415,
      "بِسَبَبٍ": 5416,
      "كَرِهَ": 5417,
      "الْغَاصِبُ": 5418,
      "اشْتِرَاطِ": 5419,
      "الرِّوَايَةِ": 5420,
      "انْتَقَلَ": 5421,
      "فِضَّةٍ": 5422,
      "آدَمِيٍّ": 5423,
      "أَيُّوبَ": 5424,
      "عَنِّي": 5425,
      "بِعْ": 5426,
      "مُقَ": 5427,
      "مُطَ": 5428,
      "بَوْ": 5429,
      "وَاحْتَ": 5430,
      "كَسَائِرِ": 5431,
      "حَلْ": 5432,
      "إشَا": 5433,
      "سَوَا": 5434,
      "رْسِ": 5435,
      "الْمُزَا": 5436,
      "الْمُخْتَا": 5437,
      "رَآ": 5438,
      "بَاعُ": 5439,
      "ضَعَ": 5440,
      "تَارَةً": 5441,
      "وَأَقَامَ": 5442,
      "غَنَ": 5443,
      "ضَاعِ": 5444,
      "الِاسْتِي": 5445,
      "وَيُشْتَرَطُ": 5446,
      "وَكَلَامُ": 5447,
      "يَأْمُ": 5448,
      "الْجَنَّةِ": 5449,
      "وَمَتَي": 5450,
      "سَيِّدِهَا": 5451,
      "الْوَصِيَّةَ": 5452,
      "سَهْمٍ": 5453,
      "بَاعَهَا": 5454,
      "الطَّلَاقَ": 5455,
      "دَفَعَهُ": 5456,
      "أَجْنَبِيٌّ": 5457,
      "النِّصْفُ": 5458,
      "الْمِيرَا": 5459,
      "الْمُقِرِّ": 5460,
      "الزُّهْرِيِّ": 5461,
      "الْحَافِظُ": 5462,
      "لَعَ": 5463,
      "وَحَيْثُ": 5464,
      "وَصَارَ": 5465,
      "لِنَحْوِ": 5466,
      "لِحَقِّ": 5467,
      "يَمُ": 5468,
      "يَسَ": 5469,
      "يَخُ": 5470,
      "مُشْكِ": 5471,
      "بَنَي": 5472,
      "كَذَّ": 5473,
      "نَّةَ": 5474,
      "مْنَاهُ": 5475,
      "عْدِ": 5476,
      "سَفِي": 5477,
      "عِدَّةِ": 5478,
      "كُمُ": 5479,
      "الْأَظْهَرِ": 5480,
      "شْرُ": 5481,
      "ضَمَانِ": 5482,
      "جُلِ": 5483,
      "جُنُ": 5484,
      "جُبَيْ": 5485,
      "لِلْمَوْلَي": 5486,
      "وَلَدِهَا": 5487,
      "فَيَصِيرُ": 5488,
      "نَحْنُ": 5489,
      "كُلِّهَا": 5490,
      "أَحْسَنُ": 5491,
      "نَحْوِهِ": 5492,
      "وَمَفْهُو": 5493,
      "تَقْصِي": 5494,
      "يُقْبَلْ": 5495,
      "زَوَّجَهَا": 5496,
      "الصُّلْحِ": 5497,
      "إِسْمَاعِي": 5498,
      "الزَّوْجَةُ": 5499,
      "الْمُشْتَرِيَ": 5500,
      "الْخُرُوجِ": 5501,
      "فَضَلَ": 5502,
      "الْوَكَالَةِ": 5503,
      "يَمْتَنِعُ": 5504,
      "لَفُ": 5505,
      "قَبِ": 5506,
      "رَعُ": 5507,
      "يَقِ": 5508,
      "لَاصَةِ": 5509,
      "سَكَتَ": 5510,
      "الْمُكْ": 5511,
      "قْبِ": 5512,
      "قُبَيْ": 5513,
      "شَرِكَ": 5514,
      "زَهُ": 5515,
      "قِيقُ": 5516,
      "َّاتِ": 5517,
      "لِلْآخَرِ": 5518,
      "الْحَجَّ": 5519,
      "ثِنْ": 5520,
      "دُومِ": 5521,
      "الْأُمُّ": 5522,
      "خَمْسُ": 5523,
      "جَّلَ": 5524,
      "يَمْنَ": 5525,
      "تَوَقُّ": 5526,
      "الْجُزْ": 5527,
      "أَرْبَعِ": 5528,
      "يَوْمَيْنِ": 5529,
      "رَحِمَ": 5530,
      "قَدَّمَهُ": 5531,
      "جَاءَتْ": 5532,
      "مَيِّتِ": 5533,
      "الْأَجْنَبِي": 5534,
      "يَضُرَّ": 5535,
      "الزَّرْعِ": 5536,
      "وَيُؤَيِّ": 5537,
      "قُرَيْشٍ": 5538,
      "مَسَائِ": 5539,
      "بِقُ": 5540,
      "بِالْحَجِّ": 5541,
      "بِحَقٍّ": 5542,
      "مِلٌ": 5543,
      "جَرُ": 5544,
      "جَدِّهِ": 5545,
      "إِنِّي": 5546,
      "زَةٌ": 5547,
      "عَاتِ": 5548,
      "وُجِ": 5549,
      "رُوبِ": 5550,
      "وَالرُّ": 5551,
      "نٍّ": 5552,
      "وَيُحْ": 5553,
      "عَلَيْنَا": 5554,
      "الْكَسْ": 5555,
      "الْعُبَابِ": 5556,
      "السُّنَّةِ": 5557,
      "عَيْنَ": 5558,
      "الْخَامِ": 5559,
      "نَفَقَتُهُ": 5560,
      "سِتَّةٍ": 5561,
      "صَالِحِ": 5562,
      "اقْتَصَرَ": 5563,
      "الثَّالِثُ": 5564,
      "صَرِيحٌ": 5565,
      "الْمَكْفُو": 5566,
      "الْخَارِجِ": 5567,
      "طَلْحَةَ": 5568,
      "خًا": 5569,
      "زُّ": 5570,
      "شِيَةِ": 5571,
      "أَدَا": 5572,
      "لِفْ": 5573,
      "لِسَيِّدِهِ": 5574,
      "بِنَ": 5575,
      "بِعْتُ": 5576,
      "فَدَ": 5577,
      "فَفَعَلَ": 5578,
      "وَانْظُرْ": 5579,
      "كَيْنِ": 5580,
      "إتْلَا": 5581,
      "سَلْ": 5582,
      "يُتْ": 5583,
      "الْمُشْتَرَ": 5584,
      "قِدَ": 5585,
      "وَالْبَاقِي": 5586,
      "اللَّبَ": 5587,
      "الْإِفْ": 5588,
      "الْإِبِلِ": 5589,
      "صَامَ": 5590,
      "خُطْ": 5591,
      "يَّةُ": 5592,
      "وَسَبْ": 5593,
      "مَالِكِهِ": 5594,
      "دِّيَ": 5595,
      "زُفَرَ": 5596,
      "انْعِ": 5597,
      "أَمْرِهِ": 5598,
      "غُرَ": 5599,
      "بِعَرَ": 5600,
      "ئَةِ": 5601,
      "الْأَرْضَ": 5602,
      "الِاقْ": 5603,
      "الْمَنْعُ": 5604,
      "وَغَيْرِهِمَا": 5605,
      "الْأَمْرَيْنِ": 5606,
      "بِالْإِجْمَاعِ": 5607,
      "إقْرَارِهِ": 5608,
      "مَأْذُو": 5609,
      "مَذْهَبِ": 5610,
      "عِدَّتُهَا": 5611,
      "يُحَدِّ": 5612,
      "عَدْلٍ": 5613,
      "جَارِيَةً": 5614,
      "عَكْسُهُ": 5615,
      "غَرِمَ": 5616,
      "الرَّافِعِيُّ": 5617,
      "الْعُلَمَاءِ": 5618,
      "الْعَمْدِ": 5619,
      "تَطَوُّ": 5620,
      "فَسَّ": 5621,
      "الْمُسَ": 5622,
      "الْأَدَاءِ": 5623,
      "كِرُ": 5624,
      "تَاجَ": 5625,
      "فُهَا": 5626,
      "وَأَشَارَ": 5627,
      "أُنْ": 5628,
      "أُمُو": 5629,
      "الْحَجْرِ": 5630,
      "كَمَالِ": 5631,
      "وَيَتَ": 5632,
      "بِالْخِيَارِ": 5633,
      "الْبَقَ": 5634,
      "الثَّمَ": 5635,
      "إذْنٍ": 5636,
      "أَلْفُ": 5637,
      "صَلَاةُ": 5638,
      "رَأْسَ": 5639,
      "زَوَّجْ": 5640,
      "يُحْكَمُ": 5641,
      "الدُّنْيَا": 5642,
      "الذَّبْحِ": 5643,
      "قَائِمًا": 5644,
      "فَاعِلِ": 5645,
      "وَأَوْلَي": 5646,
      "أَخِيهِ": 5647,
      "الْعَدْلِ": 5648,
      "الصَّحَابَةِ": 5649,
      "السُّبْكِيُّ": 5650,
      "يّ": 5651,
      "أَسَ": 5652,
      "الْغِ": 5653,
      "مَتَا": 5654,
      "بِتُ": 5655,
      "بِقِيمَةِ": 5656,
      "نَهَي": 5657,
      "مُوَكِّ": 5658,
      "مُطَالَ": 5659,
      "مَاعُ": 5660,
      "بْتُ": 5661,
      "نُسْخَ": 5662,
      "بِيهِ": 5663,
      "وَالْمَعْنَي": 5664,
      "جُهُ": 5665,
      "وَيَجْ": 5666,
      "صُورَةِ": 5667,
      "يَعْمَلُ": 5668,
      "فَرْضُ": 5669,
      "عْتِقَ": 5670,
      "يَقْصِ": 5671,
      "فِعْلَ": 5672,
      "الْوَقْتُ": 5673,
      "يُؤَدِّي": 5674,
      "الشَّيْخِ": 5675,
      "زِيَادَةٍ": 5676,
      "الذَّهَبِ": 5677,
      "مَيِّتًا": 5678,
      "الْكُفَّا": 5679,
      "الثَّوْبَ": 5680,
      "يَحْصُلْ": 5681,
      "نَسَبُهُ": 5682,
      "رَهْنًا": 5683,
      "عَالِمًا": 5684,
      "يُجْزِئُهُ": 5685,
      "ضَامِنٌ": 5686,
      "مَقَامَهُ": 5687,
      "أَنِّي": 5688,
      "وَةً": 5689,
      "وَعُلِمَ": 5690,
      "عَفْ": 5691,
      "مَعِ": 5692,
      "بِفَ": 5693,
      "يَمُو": 5694,
      "فَجَعَلَ": 5695,
      "وَاءِ": 5696,
      "حَبَّ": 5697,
      "رِدَّ": 5698,
      "رِقِ": 5699,
      "سَجْ": 5700,
      "رْجِ": 5701,
      "كَأُ": 5702,
      "ثَمَرَ": 5703,
      "ضَمَانُ": 5704,
      "تَارِ": 5705,
      "تَابُ": 5706,
      "الْعَصْرِ": 5707,
      "التَّشْ": 5708,
      "وَيَتَّ": 5709,
      "وِتْ": 5710,
      "وِيَّةِ": 5711,
      "الْمَاجِ": 5712,
      "تَوَضَّأَ": 5713,
      "الرِّفْعَةِ": 5714,
      "الْخُطْ": 5715,
      "الرُّو": 5716,
      "تُؤَ": 5717,
      "الْحِرْ": 5718,
      "صَوْمِ": 5719,
      "أَصْحَابِنَا": 5720,
      "الرَّهْنُ": 5721,
      "بِأَلْفِ": 5722,
      "الزُّبَيْرِ": 5723,
      "الْبَدَلِ": 5724,
      "الرَّمْلِيُّ": 5725,
      "الْفَصْلِ": 5726,
      "بِعَيْبٍ": 5727,
      "كَثُرَ": 5728,
      "مَبِي": 5729,
      "هِمُ": 5730,
      "هِبَةِ": 5731,
      "بِالْعَقْدِ": 5732,
      "بْهُ": 5733,
      "إتْ": 5734,
      "قِبَلِ": 5735,
      "الْأَمَةُ": 5736,
      "غَيْبَةِ": 5737,
      "زَوُّ": 5738,
      "حُمَيْ": 5739,
      "دَأُ": 5740,
      "النَّوَ": 5741,
      "يَنْقَ": 5742,
      "سُونَ": 5743,
      "أَمْرُ": 5744,
      "نِصْفِهِ": 5745,
      "فَرَغَ": 5746,
      "فُونَ": 5747,
      "خِيَارَ": 5748,
      "اعْتِرَا": 5749,
      "عَتْهُ": 5750,
      "فَاسِدٌ": 5751,
      "أُجْرَةَ": 5752,
      "الذَّكَرِ": 5753,
      "وَاجِبٍ": 5754,
      "عُبَيْدٍ": 5755,
      "الْكَفَّارَةِ": 5756,
      "الْحَوْلِ": 5757,
      "اخْتَلَفَا": 5758,
      "الدَّرَاهِمِ": 5759,
      "ظُو": 5760,
      "وَحِ": 5761,
      "وَهُنَا": 5762,
      "مَنَا": 5763,
      "تَجَ": 5764,
      "يَتُهُ": 5765,
      "فَقَوْلُ": 5766,
      "فَعُهُ": 5767,
      "مَائِهِ": 5768,
      "يُقَا": 5769,
      "ذَبَ": 5770,
      "الْمُسْتَأْ": 5771,
      "لَهُنَّ": 5772,
      "بَاقِيَ": 5773,
      "صِلِ": 5774,
      "الْحَجُّ": 5775,
      "دِينِهِ": 5776,
      "وَيَعْ": 5777,
      "قُونَ": 5778,
      "شَيْخِنَا": 5779,
      "الشَّرِكَةِ": 5780,
      "أَرْضَ": 5781,
      "وِيٍّ": 5782,
      "وَقَبَ": 5783,
      "وَقَيَّ": 5784,
      "تَعَمَّ": 5785,
      "وَفِيهَا": 5786,
      "مَرَّتَيْنِ": 5787,
      "سِيُّ": 5788,
      "أَلْفٍ": 5789,
      "تَرْكِهِ": 5790,
      "صَدَقَةٌ": 5791,
      "نَفَقَةِ": 5792,
      "الْأَخْذُ": 5793,
      "إسْحَاقَ": 5794,
      "يَخْتَلِفُ": 5795,
      "الرَّاهِنُ": 5796,
      "آدَمَ": 5797,
      "رَبِيعَةَ": 5798,
      "التَّيَمُّمِ": 5799,
      "ظَنِّهِ": 5800,
      "مَكْرُوهٌ": 5801,
      "الْكَعْبَةِ": 5802,
      "مَمْنُوعٌ": 5803,
      "إجْمَاعًا": 5804,
      "الْمَاجِشُو": 5805,
      "الْكَلَامَ": 5806,
      "بِالْعَيْبِ": 5807,
      "يَشْتَرِي": 5808,
      "نَخْ": 5809,
      "وَادَّعَي": 5810,
      "إقَامَ": 5811,
      "الْمُجْ": 5812,
      "جُرَيْجٍ": 5813,
      "الْإِعْ": 5814,
      "النَّهْرِ": 5815,
      "زِمَ": 5816,
      "تَقَعُ": 5817,
      "يَتَغَيَّ": 5818,
      "سِيَّ": 5819,
      "أَحَدُهُمْ": 5820,
      "الْحُرَّةِ": 5821,
      "تَحْلِي": 5822,
      "يَفْعَلُ": 5823,
      "حَمْلُ": 5824,
      "وَارِثِ": 5825,
      "دَفْعُ": 5826,
      "وَاَللَّهِ": 5827,
      "يُخْرِجُ": 5828,
      "بَحَثَهُ": 5829,
      "الْمَشْهُورُ": 5830,
      "الْكَافِرِ": 5831,
      "الْقَوْلَيْنِ": 5832,
      "الْكَفَّارَةُ": 5833,
      "خِدْمَةِ": 5834,
      "الصَّيْدِ": 5835,
      "وَيُسَنُّ": 5836,
      "وَامْرَأَ": 5837,
      "تَعَيَّنُ": 5838,
      "قَّا": 5839,
      "أَضْ": 5840,
      "تَرِ": 5841,
      "تَصِحَّ": 5842,
      "رَبَةِ": 5843,
      "مُعَلَّ": 5844,
      "حَرَ": 5845,
      "سَكَ": 5846,
      "الْمُقْ": 5847,
      "رَاجَعْ": 5848,
      "خَشَ": 5849,
      "فِرَ": 5850,
      "الْمَسَائِلِ": 5851,
      "طَرَأَ": 5852,
      "بَيْعٌ": 5853,
      "قِينَ": 5854,
      "وَأَيْ": 5855,
      "دَارُ": 5856,
      "صَّةِ": 5857,
      "وَّلُ": 5858,
      "النَّجَاسَ": 5859,
      "زِلَ": 5860,
      "بِالْأَوْلَي": 5861,
      "فَيَسْ": 5862,
      "وَكَتَبَ": 5863,
      "الشَّفِي": 5864,
      "الْقَرِي": 5865,
      "ذَكَرٍ": 5866,
      "الدَّمُ": 5867,
      "شُهُو": 5868,
      "الْعِمَا": 5869,
      "ؤْيَةِ": 5870,
      "أَقَلِّ": 5871,
      "تَأَخَّرَ": 5872,
      "قْرَارِ": 5873,
      "بَعْضِهَا": 5874,
      "يُعْلَمْ": 5875,
      "تَرْجِي": 5876,
      "سَنَةَ": 5877,
      "بَدَلٌ": 5878,
      "يَفْعَلَ": 5879,
      "بِقَيْ": 5880,
      "بِقَصْ": 5881,
      "وَكِيعٌ": 5882,
      "أَبَوَيْنِ": 5883,
      "حَاجَةِ": 5884,
      "أَصْحَابُ": 5885,
      "عَيْنِهِ": 5886,
      "وَلَعَلَّهُ": 5887,
      "سَبِيلِ": 5888,
      "فَرَاغِ": 5889,
      "تَلِفَتْ": 5890,
      "مِيَةِ": 5891,
      "وَرَجَعَ": 5892,
      "لِقِ": 5893,
      "لِأُمٍّ": 5894,
      "يَدُهُ": 5895,
      "نَسْ": 5896,
      "يُوَافِ": 5897,
      "ذَنَ": 5898,
      "الْمُهْ": 5899,
      "جْرُ": 5900,
      "جْتِهَا": 5901,
      "حُكُو": 5902,
      "أُسْ": 5903,
      "خِنْزِي": 5904,
      "وَلَدًا": 5905,
      "مَالِكُ": 5906,
      "حِينِ": 5907,
      "نَفْلًا": 5908,
      "أَرْضِهِ": 5909,
      "وِيٌّ": 5910,
      "كُلُّهَا": 5911,
      "أَوَّلِهِ": 5912,
      "ابْنٍ": 5913,
      "أَفْطَرَ": 5914,
      "يَسْتَأْ": 5915,
      "اخْتِصَا": 5916,
      "كَافِرٌ": 5917,
      "الْأَمْرَ": 5918,
      "السِّلْ": 5919,
      "دِيَةُ": 5920,
      "يُعَدُّ": 5921,
      "جَمْعٌ": 5922,
      "مُدَّةَ": 5923,
      "رِجْلَيْهِ": 5924,
      "مُحْتَرَ": 5925,
      "اجْتِهَا": 5926,
      "جُبَيْرٍ": 5927,
      "وَشَرْطُ": 5928,
      "الْقِيمَةُ": 5929,
      "عَبِي": 5930,
      "عَتُهُ": 5931,
      "مَتُهُ": 5932,
      "بِحِ": 5933,
      "يَهْ": 5934,
      "فَظُ": 5935,
      "كَفَّ": 5936,
      "رْنَا": 5937,
      "يُرِدْ": 5938,
      "جَرِي": 5939,
      "الْمُطَالَ": 5940,
      "تُحْ": 5941,
      "دْتُ": 5942,
      "بَيْتٍ": 5943,
      "الْعَجْ": 5944,
      "الْعَشَرَةِ": 5945,
      "وَالرَّا": 5946,
      "بِالْقِيمَةِ": 5947,
      "فَأَحْ": 5948,
      "حُكْمٌ": 5949,
      "الدَّفْعِ": 5950,
      "وُجُوهِ": 5951,
      "وَالْمُغْنِي": 5952,
      "الْخَوْ": 5953,
      "الْعَامِلُ": 5954,
      "مِائَةٌ": 5955,
      "ثُلُثَيْ": 5956,
      "الرَّاجِ": 5957,
      "قَطْعَ": 5958,
      "عَمَلِ": 5959,
      "شَهِدَتْ": 5960,
      "طَرِيقٍ": 5961,
      "نِصْفَيْنِ": 5962,
      "اُسْتُحِقَّ": 5963,
      "الْمُوَكِّلُ": 5964,
      "نَاسِبُ": 5965,
      "تُجْزِئُ": 5966,
      "الْمَرِيضِ": 5967,
      "نَدْبًا": 5968,
      "مُخَالِفٌ": 5969,
      "الْمُؤْمِنِينَ": 5970,
      "اُعْتُبِرَ": 5971,
      "لَحَةِ": 5972,
      "بِثُلُثِ": 5973,
      "تَبَا": 5974,
      "قَعُ": 5975,
      "قَرِينَ": 5976,
      "مِعَ": 5977,
      "مَانٍ": 5978,
      "هَاهُنَا": 5979,
      "جَدِّ": 5980,
      "جَرَهُ": 5981,
      "الْمُقَا": 5982,
      "الْمُكَلَّ": 5983,
      "مَّمَ": 5984,
      "خَرَ": 5985,
      "خْرُجُ": 5986,
      "الْأَخِ": 5987,
      "حُكِمَ": 5988,
      "لِيٌّ": 5989,
      "يِّرَ": 5990,
      "شَيْبَةَ": 5991,
      "بِالْمَالِ": 5992,
      "بُونَ": 5993,
      "طَانِ": 5994,
      "أَحَبَّ": 5995,
      "زُهُ": 5996,
      "عَدَدِ": 5997,
      "لِلسُّ": 5998,
      "يَوْمُ": 5999,
      "وُجُوبِهِ": 6000,
      "يَرْكَ": 6001,
      "الْعَادَةِ": 6002,
      "الضَّمَانُ": 6003,
      "وَأُجِيبَ": 6004,
      "الْفُقَهَا": 6005,
      "فَاسِدًا": 6006,
      "الْمَيِّتُ": 6007,
      "سِتَّةٌ": 6008,
      "حِصَّتَهُ": 6009,
      "أَدْنَي": 6010,
      "الْقُرْآ": 6011,
      "النِّصْفَ": 6012,
      "الْأُجْرَةُ": 6013,
      "التَّقْدِي": 6014,
      "وَصَحَّحَهُ": 6015,
      "بَحْرٌ": 6016,
      "الْعِوَضِ": 6017,
      "ارْتِ": 6018,
      "يَمْلِكْ": 6019,
      "حِّ": 6020,
      "الٍ": 6021,
      "أَعَا": 6022,
      "أَطْلَ": 6023,
      "أَظْهَرُ": 6024,
      "وَمُحَمَّدٍ": 6025,
      "الْيُسْرَي": 6026,
      "مِنَّا": 6027,
      "يَعُودُ": 6028,
      "فَلِأَنَّ": 6029,
      "حَتْ": 6030,
      "إفْ": 6031,
      "جَسَ": 6032,
      "جَزْ": 6033,
      "خَصَّ": 6034,
      "دُبُ": 6035,
      "كُمَا": 6036,
      "التَّكْ": 6037,
      "طَافَ": 6038,
      "وَيُنْ": 6039,
      "الْحَالَةِ": 6040,
      "قِيمَتُهَا": 6041,
      "ظْمِ": 6042,
      "كِتَابِي": 6043,
      "يُعْطِيَ": 6044,
      "بَائِعِهِ": 6045,
      "فَلِذَلِكَ": 6046,
      "يَتْرُ": 6047,
      "الْأُجْرَةَ": 6048,
      "نَحْوَهُ": 6049,
      "اجْتِ": 6050,
      "الْمُسْتَأْجِرُ": 6051,
      "صَبِيٍّ": 6052,
      "نَفْسَهَا": 6053,
      "الْوَلِيدِ": 6054,
      "الْقَطْعُ": 6055,
      "اكْتَ": 6056,
      "وَجُ": 6057,
      "الْخِلَافُ": 6058,
      "مَدَهُ": 6059,
      "تَقَا": 6060,
      "تَثْبُتُ": 6061,
      "قَبِلَ": 6062,
      "الْمُشْرِ": 6063,
      "كُلْ": 6064,
      "رِيدُ": 6065,
      "لِلْقَاضِي": 6066,
      "صِرُ": 6067,
      "خِلَافٌ": 6068,
      "يَتَيَ": 6069,
      "يَحْلِفَ": 6070,
      "الْقَرَا": 6071,
      "مَوْصُو": 6072,
      "أَخْذَ": 6073,
      "أَعْظَ": 6074,
      "عَمْرُو": 6075,
      "خَمْرٍ": 6076,
      "كِتَابَةِ": 6077,
      "الْإِمَامَ": 6078,
      "الْأَرْشِ": 6079,
      "دَيْنَهُ": 6080,
      "أَرْبَعًا": 6081,
      "رَأْسُ": 6082,
      "كُلَّمَا": 6083,
      "يَدْفَعُ": 6084,
      "يُقْضَي": 6085,
      "يُنْظَرُ": 6086,
      "الشُّرُو": 6087,
      "مَيِّتٍ": 6088,
      "الْمَحْلُو": 6089,
      "يُشْبِهُ": 6090,
      "رَقِيقًا": 6091,
      "النَّظَرُ": 6092,
      "الْمَعْرُوفِ": 6093,
      "مُبْتَدَا": 6094,
      "الْآدَمِيِّ": 6095,
      "ضَّةِ": 6096,
      "غًا": 6097,
      "تَسَ": 6098,
      "تَقُو": 6099,
      "يَدَيْ": 6100,
      "مُلْ": 6101,
      "مُخْ": 6102,
      "مَاتِ": 6103,
      "لُهُمَا": 6104,
      "خَلَا": 6105,
      "كُنَّا": 6106,
      "وَالْوَصِي": 6107,
      "مَنْدُو": 6108,
      "وَأَهْ": 6109,
      "الْإِطْلَاقِ": 6110,
      "دَارًا": 6111,
      "الْحَوَا": 6112,
      "الْحَدَّ": 6113,
      "وُصُو": 6114,
      "فَأَمَرَ": 6115,
      "يَتَصَرَّ": 6116,
      "مِلْكَهُ": 6117,
      "الطَّالِ": 6118,
      "ثَانِيَ": 6119,
      "السُّجُودِ": 6120,
      "وَنَقَ": 6121,
      "الْآيَةِ": 6122,
      "الرُّكْ": 6123,
      "يُنْتَ": 6124,
      "زَمَنٍ": 6125,
      "الْغُسْلُ": 6126,
      "سَهْمٌ": 6127,
      "أُجْرَةٍ": 6128,
      "مَكَّنُ": 6129,
      "يَخْرُجَ": 6130,
      "الْجُمُعَةُ": 6131,
      "الْحُرِّيَّةِ": 6132,
      "مُخْتَلِفَ": 6133,
      "قَضِيَّةُ": 6134,
      "الصَّدَاقِ": 6135,
      "قُبَيْلَ": 6136,
      "وُجِدَتْ": 6137,
      "جٍّ": 6138,
      "أَرَا": 6139,
      "وَغَيْرِ": 6140,
      "هِبِ": 6141,
      "فَصَ": 6142,
      "مُحَا": 6143,
      "حَنْبَ": 6144,
      "عْلَ": 6145,
      "يُفَرِّ": 6146,
      "جَرَتْ": 6147,
      "كُنَّ": 6148,
      "بَاتِ": 6149,
      "زَعْ": 6150,
      "سَافَرَ": 6151,
      "الرَّزَّا": 6152,
      "اسْمٌ": 6153,
      "نَفْسِي": 6154,
      "فَأَرْ": 6155,
      "يَرْفَعُ": 6156,
      "عَيْبًا": 6157,
      "مِائَةً": 6158,
      "الْغَنِي": 6159,
      "عِتْقُ": 6160,
      "أَمَتَهُ": 6161,
      "الْفُرْ": 6162,
      "الْمَرْأَةَ": 6163,
      "الْفِدْ": 6164,
      "وَكِّلِ": 6165,
      "يُقَدِّ": 6166,
      "صَرَفَ": 6167,
      "سَقَطَتْ": 6168,
      "الْهَمْ": 6169,
      "ثَابِتٌ": 6170,
      "حُرَّةٌ": 6171,
      "خَبَرٌ": 6172,
      "الْقِصَاصِ": 6173,
      "لُغَةً": 6174,
      "كَعْبٍ": 6175,
      "الْهَدْيِ": 6176,
      "سُقُوطِ": 6177,
      "مَحْرَمٍ": 6178,
      "يُحَدِّثُ": 6179,
      "وَعِ": 6180,
      "وَيَا": 6181,
      "وَعَدَ": 6182,
      "وَعَدَمُ": 6183,
      "بِطُ": 6184,
      "بِلَتْ": 6185,
      "تَعْتَ": 6186,
      "يَدُ": 6187,
      "مُسِ": 6188,
      "بَسُ": 6189,
      "رِجَا": 6190,
      "رُبَّمَا": 6191,
      "كَامِلَ": 6192,
      "فَارَ": 6193,
      "جَنِي": 6194,
      "الْمُلْتَ": 6195,
      "جِدًّا": 6196,
      "حُمِلَ": 6197,
      "لِلْمَيِّتِ": 6198,
      "سُنَ": 6199,
      "صَالَ": 6200,
      "صَادَ": 6201,
      "يَنْعَ": 6202,
      "أَرْشُ": 6203,
      "زِيدُ": 6204,
      "وَقْفٍ": 6205,
      "الْقِرَاءَةِ": 6206,
      "نِيَةِ": 6207,
      "الْخُصُو": 6208,
      "خَيْرًا": 6209,
      "دَخَلَتْ": 6210,
      "الْمَقْتُو": 6211,
      "حِصَّةِ": 6212,
      "الْمُؤَجَّ": 6213,
      "حَاكِمٍ": 6214,
      "الْمُتَوَلِّي": 6215,
      "لْزِمُ": 6216,
      "اللَّخْمِيِّ": 6217,
      "الْقَبُولِ": 6218,
      "أَتَ": 6219,
      "وَزَادَ": 6220,
      "بِقَبْضِ": 6221,
      "قَيْنِ": 6222,
      "رَكُ": 6223,
      "رَضَا": 6224,
      "فَكَمَا": 6225,
      "نَبَ": 6226,
      "بَرَاءَ": 6227,
      "كَغَيْرِهِ": 6228,
      "كَفِّ": 6229,
      "حَيْنِ": 6230,
      "دَعِ": 6231,
      "يُفَ": 6232,
      "قَوْمٌ": 6233,
      "بَاءِ": 6234,
      "هْرًا": 6235,
      "قِيمُ": 6236,
      "فُرُو": 6237,
      "أُضْحِي": 6238,
      "صَافِ": 6239,
      "النَّخْ": 6240,
      "وَسَقَطَ": 6241,
      "وَالضَّ": 6242,
      "الرَّقِيقِ": 6243,
      "شَاةٍ": 6244,
      "ظَرْ": 6245,
      "السَّبْ": 6246,
      "مَرَّا": 6247,
      "أَحْكَامِ": 6248,
      "عَلَيْكَ": 6249,
      "ثَلَاثَةً": 6250,
      "تَحْتَهُ": 6251,
      "وَعَكْ": 6252,
      "الْخُفِّ": 6253,
      "رَمَي": 6254,
      "مُنْذُ": 6255,
      "نَصِيبُهُ": 6256,
      "الدَّابَّةِ": 6257,
      "يُفْطِ": 6258,
      "خَلْفَ": 6259,
      "إخْرَاجِ": 6260,
      "الْمِيمِ": 6261,
      "زَكَاةَ": 6262,
      "عِلَّةٌ": 6263,
      "الِاخْتِلَا": 6264,
      "وَقَدَّمَهُ": 6265,
      "يَتَحَقَّقُ": 6266,
      "الْمَوْضِعِ": 6267,
      "فَقَتَلَهُ": 6268,
      "فَأَشْبَهَ": 6269,
      "الرَّزَّاقِ": 6270,
      "شٌ": 6271,
      "الْقِيمَةَ": 6272,
      "عَظِي": 6273,
      "هِدَ": 6274,
      "بِسِ": 6275,
      "بِكَوْنِهِ": 6276,
      "مِرَ": 6277,
      "رَكَا": 6278,
      "فَبَانَ": 6279,
      "مُخْتَا": 6280,
      "وَاخْتَ": 6281,
      "دَرُ": 6282,
      "أَوْجَبَ": 6283,
      "الْمُسَا": 6284,
      "الْمُقْتَ": 6285,
      "طَوِي": 6286,
      "أُكْرِهَ": 6287,
      "صَابَ": 6288,
      "وَيَمْ": 6289,
      "نَفْيُ": 6290,
      "حُكْمٍ": 6291,
      "أَعْلَي": 6292,
      "أَصْلَ": 6293,
      "غُلَا": 6294,
      "غُرْ": 6295,
      "الْأُمُو": 6296,
      "أَحْكَا": 6297,
      "أَحْدَثَ": 6298,
      "الرِّضَا": 6299,
      "ثُلُثِهِ": 6300,
      "أَخَذَهَا": 6301,
      "وَالِاسْتِ": 6302,
      "لاَّ": 6303,
      "فَّي": 6304,
      "زَوْجَتُهُ": 6305,
      "كَالصَّ": 6306,
      "قَضَاءُ": 6307,
      "الْمَغْرِبِ": 6308,
      "سَعْدِ": 6309,
      "مُفْرَ": 6310,
      "امْتِنَاعِ": 6311,
      "بِإِسْنَا": 6312,
      "يُبَيِّنْ": 6313,
      "طّ": 6314,
      "وَرُدَّ": 6315,
      "الْيُمْنَي": 6316,
      "نْيَةِ": 6317,
      "يَعُ": 6318,
      "يَحُ": 6319,
      "يَدٍ": 6320,
      "يَتَانِ": 6321,
      "مُمَيِّ": 6322,
      "بَرِي": 6323,
      "مْكِ": 6324,
      "دَمٍ": 6325,
      "قَوْلٌ": 6326,
      "عِمْرَا": 6327,
      "فَاهُ": 6328,
      "جَعَلْ": 6329,
      "دَّةٍ": 6330,
      "وَلَيْ": 6331,
      "قَبْضُ": 6332,
      "الثُّ": 6333,
      "فَيَسْتَ": 6334,
      "الْقَذْفِ": 6335,
      "نِهِمْ": 6336,
      "مِلْكٌ": 6337,
      "الْعِلَّةِ": 6338,
      "يَرْضَ": 6339,
      "يَبْرَأُ": 6340,
      "الْوَالِ": 6341,
      "الْعَادَةُ": 6342,
      "فَّيْنِ": 6343,
      "الْجَاهِ": 6344,
      "يُفْهَمُ": 6345,
      "الْأَجْرِ": 6346,
      "الْيَمِينَ": 6347,
      "الْجَوَازِ": 6348,
      "تَوْكِي": 6349,
      "الْأَحْكَامِ": 6350,
      "ادَّعَاهُ": 6351,
      "يُخَالِفُ": 6352,
      "الْمَوْقُوفِ": 6353,
      "السُّؤَ": 6354,
      "شًا": 6355,
      "أَخُو": 6356,
      "وَبَعْدَهُ": 6357,
      "ئْ": 6358,
      "بِقِ": 6359,
      "بِبَيْعِ": 6360,
      "تَخَلَّ": 6361,
      "قَتَيْنِ": 6362,
      "دَعُ": 6363,
      "رْت": 6364,
      "عُمَيْ": 6365,
      "خْرَاجِ": 6366,
      "الْمَخْ": 6367,
      "جِهِ": 6368,
      "رَّفَ": 6369,
      "الْأَجِي": 6370,
      "أُمَ": 6371,
      "جَاوِ": 6372,
      "الْعَزْ": 6373,
      "غَسْلُ": 6374,
      "الْإِبْ": 6375,
      "الرَّفْعِ": 6376,
      "لِلنِّ": 6377,
      "لِلنَّا": 6378,
      "الْقَصْرِ": 6379,
      "كُنْت": 6380,
      "عَمْرٌ": 6381,
      "شِرْ": 6382,
      "سَبَبٍ": 6383,
      "أَحَدُهَا": 6384,
      "وَقْفِ": 6385,
      "يُعْطَي": 6386,
      "كَافِرًا": 6387,
      "سَهْمًا": 6388,
      "رَاجِعْهُ": 6389,
      "يَشْهَدُ": 6390,
      "بِضَمٍّ": 6391,
      "أَبَاهُ": 6392,
      "عَتَقَتْ": 6393,
      "وَجْهَهُ": 6394,
      "رُجُوعَ": 6395,
      "طَلْقَةٍ": 6396,
      "الظَّنِّ": 6397,
      "الصُّورَةِ": 6398,
      "الظَّاهِرَ": 6399,
      "يَبْلُغُ": 6400,
      "مَحْمُولٌ": 6401,
      "الْقُدْرَةِ": 6402,
      "الْحِنْثِ": 6403,
      "َّيْنِ": 6404,
      "الْقَوْلَ": 6405,
      "عَفَا": 6406,
      "لِسَ": 6407,
      "بِالطَّلَاقِ": 6408,
      "بِتَرْكِ": 6409,
      "كَمْ": 6410,
      "لَاتِ": 6411,
      "دَخَلْ": 6412,
      "نِعْ": 6413,
      "هَرُ": 6414,
      "فَاوُ": 6415,
      "الْمُغِي": 6416,
      "قْنَا": 6417,
      "فِسْ": 6418,
      "فْلِ": 6419,
      "دْنَا": 6420,
      "جْرَ": 6421,
      "الْأَخَ": 6422,
      "سِبُ": 6423,
      "وَيَلْزَمُهُ": 6424,
      "ءَةِ": 6425,
      "بِالْبَيِّنَةِ": 6426,
      "السَّرَ": 6427,
      "صِحَّةَ": 6428,
      "الْبَيَانِ": 6429,
      "الْمَادَّةِ": 6430,
      "لِلْمُسْتَ": 6431,
      "فَتَكُونُ": 6432,
      "وَمَجْ": 6433,
      "تِّينَ": 6434,
      "اشْتَرَيْ": 6435,
      "يَدْفَعَ": 6436,
      "زَوْجَةٍ": 6437,
      "حَقُّقِ": 6438,
      "عِلْمٍ": 6439,
      "الصُّلْ": 6440,
      "الْعَيْنَ": 6441,
      "الزَّوْجَيْنِ": 6442,
      "الْمَحْجُو": 6443,
      "أَصَابَهُ": 6444,
      "اثْنَيْ": 6445,
      "حُجَّةٌ": 6446,
      "حَاكِمِ": 6447,
      "الْفَاتِ": 6448,
      "الْكَافِي": 6449,
      "مُقَابَلَةِ": 6450,
      "شِئْت": 6451,
      "سُمِّيَ": 6452,
      "وَأَخْبَرَنَا": 6453,
      "وَيَتَّجِهُ": 6454,
      "عَمْرٌو": 6455,
      "اعْتَقَ": 6456,
      "وَكَأَنَّهُ": 6457,
      "الْعَلَ": 6458,
      "الْكُو": 6459,
      "لِصَاحِبِهِ": 6460,
      "فَظَ": 6461,
      "فَوَلَدَتْ": 6462,
      "نَجِّ": 6463,
      "نَكَحَ": 6464,
      "مُقِ": 6465,
      "وَاتٍ": 6466,
      "إبَا": 6467,
      "إعْطَا": 6468,
      "يُغْ": 6469,
      "يُطَلِّ": 6470,
      "مَّةُ": 6471,
      "فْظَ": 6472,
      "زَةٍ": 6473,
      "قَدْرِهِ": 6474,
      "دَادِ": 6475,
      "بِالْمِلْكِ": 6476,
      "شَرْطًا": 6477,
      "الْفَرَ": 6478,
      "الْجَدِّ": 6479,
      "خَمْسُونَ": 6480,
      "الْبَيْهَقِيُّ": 6481,
      "صَاحِبَهُ": 6482,
      "الْخَلْ": 6483,
      "كَأَصْ": 6484,
      "الْحُسَيْنِ": 6485,
      "وَقْتِهَا": 6486,
      "أَفْسَ": 6487,
      "مِائَةَ": 6488,
      "اشْتَرَاهَا": 6489,
      "تَفْوِي": 6490,
      "كَالتَّ": 6491,
      "ثَبَتَتْ": 6492,
      "مُعَاوَضَ": 6493,
      "حَرْبٍ": 6494,
      "الْقِيَامِ": 6495,
      "الْمَسْأَلَةَ": 6496,
      "مُشْتَرٍ": 6497,
      "قَطِعُ": 6498,
      "خَمْسِمِائَةٍ": 6499,
      "الْكَرَاهَةِ": 6500,
      "الْعَبَّاسِ": 6501,
      "تّي": 6502,
      "وَوَقَعَ": 6503,
      "وَعَدَمِهِ": 6504,
      "بِالْمَوْتِ": 6505,
      "بِفِعْلِهِ": 6506,
      "قَذْ": 6507,
      "يَحِلَّ": 6508,
      "نَفَذَ": 6509,
      "حَب": 6510,
      "دَتَيْنِ": 6511,
      "سَةِ": 6512,
      "قَانِ": 6513,
      "دِرِ": 6514,
      "ثَوَا": 6515,
      "شَرِبَ": 6516,
      "بِينَ": 6517,
      "حَاتِ": 6518,
      "غَصَ": 6519,
      "التَّوَ": 6520,
      "مِينِ": 6521,
      "عِيرُ": 6522,
      "فَأَرَادَ": 6523,
      "يَحْضُ": 6524,
      "وَتَسْ": 6525,
      "الْفَوْ": 6526,
      "صُوَ": 6527,
      "الْقَاضِيَ": 6528,
      "ثَلَاثٌ": 6529,
      "يَقْبَلُ": 6530,
      "بِعَقْ": 6531,
      "سَبَبًا": 6532,
      "رَكَةِ": 6533,
      "جُزْءًا": 6534,
      "اعْتِكَا": 6535,
      "يَأْخُذْ": 6536,
      "أُخْتِ": 6537,
      "الدِّرْهَ": 6538,
      "صَدَقَةٍ": 6539,
      "تَسْمِيَ": 6540,
      "يُؤْكَلُ": 6541,
      "وَصِيَّةٍ": 6542,
      "النِّكَاحَ": 6543,
      "مَأْخُو": 6544,
      "تَمَلُّ": 6545,
      "قَيْسٍ": 6546,
      "يُوجَدُ": 6547,
      "يُدْرِ": 6548,
      "صَغِيرًا": 6549,
      "حَامِلًا": 6550,
      "التَّأْخِي": 6551,
      "مَصْلَحَ": 6552,
      "مِصْرَ": 6553,
      "الْحَيَاةِ": 6554,
      "مَعْطُوفٌ": 6555,
      "يَضْمَنُهُ": 6556,
      "الْمَاجِشُونِ": 6557,
      "مَرَّاتٍ": 6558,
      "لَغْ": 6559,
      "وَعَبْدُ": 6560,
      "الْعِيدِ": 6561,
      "مَلٌ": 6562,
      "بِالِاسْتِ": 6563,
      "بِنَفْسِ": 6564,
      "تَفَ": 6565,
      "يَشُ": 6566,
      "فَكُلُّ": 6567,
      "مَاءً": 6568,
      "وَاعْلَمْ": 6569,
      "فِيَّةِ": 6570,
      "دَيْهِ": 6571,
      "رِضُ": 6572,
      "بْحَ": 6573,
      "رْفُ": 6574,
      "رُءُو": 6575,
      "الْمُحَ": 6576,
      "الْمُنَا": 6577,
      "نَاسِي": 6578,
      "شَدِي": 6579,
      "عِيرٍ": 6580,
      "وَيَضْمَنُ": 6581,
      "وَالزَّ": 6582,
      "ضْرَبُ": 6583,
      "لِلشَّا": 6584,
      "السَّيْ": 6585,
      "رَأَتْ": 6586,
      "فَرْضٌ": 6587,
      "أَكْلُهُ": 6588,
      "الطَّهَا": 6589,
      "يَقْطَعُ": 6590,
      "وَالْمُسْتَ": 6591,
      "أَشْيَاءَ": 6592,
      "يَوْمَئِذٍ": 6593,
      "الْجَامِ": 6594,
      "يَكْتُ": 6595,
      "سَبْعَةٍ": 6596,
      "بَلَغَتْ": 6597,
      "رْتَهِنِ": 6598,
      "أَوْلَادِهِ": 6599,
      "رُجُوعِهِ": 6600,
      "الْإِقْرَارُ": 6601,
      "يَعْتَقِ": 6602,
      "طَلْقَةً": 6603,
      "الْعَدَدِ": 6604,
      "الْمُعْجَمَةِ": 6605,
      "جَامِعِ": 6606,
      "جَهِلَ": 6607,
      "غَاصِبِ": 6608,
      "يَنْظُرُ": 6609,
      "الرُّكُوعِ": 6610,
      "أَنْبَأَنَا": 6611,
      "أَجَّ": 6612,
      "أَخَّرَ": 6613,
      "أَعَمُّ": 6614,
      "بِطَ": 6615,
      "مُكْرَ": 6616,
      "إثْ": 6617,
      "قَاهُ": 6618,
      "رُبَ": 6619,
      "جَنَا": 6620,
      "جَدِي": 6621,
      "صَدْ": 6622,
      "قْبَا": 6623,
      "نَاظِ": 6624,
      "تُهْ": 6625,
      "دْهُ": 6626,
      "سِهَا": 6627,
      "وَالْأَوْلَي": 6628,
      "رِيمُ": 6629,
      "عَاتٍ": 6630,
      "تَاهُ": 6631,
      "وَأَقْ": 6632,
      "خُبْ": 6633,
      "وَيَظْهَرُ": 6634,
      "الْوَضْعِ": 6635,
      "طَأْ": 6636,
      "خَانِ": 6637,
      "لُولِ": 6638,
      "الصَّبْ": 6639,
      "فَأَسْ": 6640,
      "شَرْطَ": 6641,
      "انْقَطَعَ": 6642,
      "أَرْسَلَ": 6643,
      "وَفِيمَا": 6644,
      "أَلْفِ": 6645,
      "دَيْنَ": 6646,
      "صَلَاةَ": 6647,
      "قِهِمْ": 6648,
      "ظْهَرَ": 6649,
      "سَنَتَيْنِ": 6650,
      "عَشَرَةٌ": 6651,
      "وَطْؤُهَا": 6652,
      "وُقُوعِهِ": 6653,
      "عِدَّةُ": 6654,
      "ذِكْرِهِ": 6655,
      "دَبَّرْ": 6656,
      "جَهْلِ": 6657,
      "أَخَذْ": 6658,
      "الْجَمْعُ": 6659,
      "سَحْنُونٍ": 6660,
      "الْمُقِرُّ": 6661,
      "خَلِيلٌ": 6662,
      "أَتْلَفَهُ": 6663,
      "الذِّمِّيِّ": 6664,
      "فَتَاوَي": 6665,
      "وُلِدَ": 6666,
      "خُّ": 6667,
      "َّتَهُ": 6668,
      "عَطَ": 6669,
      "لِفِهِ": 6670,
      "لِأَقَلَّ": 6671,
      "مَضَتْ": 6672,
      "بِشُبْهَةٍ": 6673,
      "فَصَلَّي": 6674,
      "فَكَانَتْ": 6675,
      "نَصُّ": 6676,
      "مُثَ": 6677,
      "لَالُ": 6678,
      "لَّةَ": 6679,
      "يُوَكِّ": 6680,
      "رُهُمْ": 6681,
      "عُنُ": 6682,
      "بُكَيْ": 6683,
      "قِرَا": 6684,
      "مَنْعِ": 6685,
      "رُوهُ": 6686,
      "بِالْقَبْضِ": 6687,
      "فَيَضْمَنُ": 6688,
      "لِلطَّ": 6689,
      "مَوْضُو": 6690,
      "أَرْشَ": 6691,
      "عَمْدٍ": 6692,
      "تَبَرِّ": 6693,
      "سَبَبَ": 6694,
      "تَوَجَّهُ": 6695,
      "الرِّدَّةِ": 6696,
      "كَسْرٍ": 6697,
      "الرَّجُلَ": 6698,
      "الْهِبَةُ": 6699,
      "خَّرُ": 6700,
      "جَمْعِ": 6701,
      "آخِرَ": 6702,
      "فَلْيُرَاجَعْ": 6703,
      "حُوا": 6704,
      "الْإِنْسَا": 6705,
      "جِهَةٍ": 6706,
      "الْأَقْرَبُ": 6707,
      "الْأَكْثَرِ": 6708,
      "السُّدُسُ": 6709,
      "يُبْطِلُ": 6710,
      "الْمَمْلُو": 6711,
      "نَاسِيًا": 6712,
      "َلَّذِي": 6713,
      "لِوُجُوبِ": 6714,
      "لِمُسْلِمٍ": 6715,
      "لِبَقَاءِ": 6716,
      "مَشَقَّ": 6717,
      "مَسَحَ": 6718,
      "بِمِلْكِ": 6719,
      "بِوَجْهٍ": 6720,
      "تَغَيُّ": 6721,
      "يَيْ": 6722,
      "يَقِي": 6723,
      "نَزْ": 6724,
      "مُمْتَنِ": 6725,
      "لَاعِ": 6726,
      "فِيُّ": 6727,
      "حَتّي": 6728,
      "دَرَجَ": 6729,
      "يُذْ": 6730,
      "يُسَاوِي": 6731,
      "يُخَيَّرُ": 6732,
      "فَاتَهُ": 6733,
      "فِعِيِّ": 6734,
      "الْمَهْرُ": 6735,
      "جِدُ": 6736,
      "زَنَي": 6737,
      "رِيدَ": 6738,
      "عَادَةُ": 6739,
      "الْإِكْ": 6740,
      "دَانَ": 6741,
      "دِيَّةِ": 6742,
      "بِالْعِتْقِ": 6743,
      "فَيَرْجِعُ": 6744,
      "خَافُ": 6745,
      "وَكَسْ": 6746,
      "انْفِ": 6747,
      "أَعْطَي": 6748,
      "الْأُضْحِي": 6749,
      "لِلْمُوَكِّلِ": 6750,
      "الْمَسْحِ": 6751,
      "يَلْزَمْ": 6752,
      "بَعْضُهَا": 6753,
      "ظِهَا": 6754,
      "فَتْحٌ": 6755,
      "تَقْرِي": 6756,
      "وَحَلَفَ": 6757,
      "خِيَارُ": 6758,
      "قَدَّمْنَاهُ": 6759,
      "ضَرَرٌ": 6760,
      "الْوَصِيُّ": 6761,
      "صَوْمُ": 6762,
      "الْمَيِّتَ": 6763,
      "نَفَقَةَ": 6764,
      "نَفَقَةُ": 6765,
      "فَالظَّاهِرُ": 6766,
      "الْمُؤَجِّ": 6767,
      "أَسْلَمَتْ": 6768,
      "الْكُفْرِ": 6769,
      "صَيْدٍ": 6770,
      "كَفَّارَةُ": 6771,
      "بْرَاهِيمُ": 6772,
      "آنِفًا": 6773,
      "فَيَحْرُمُ": 6774,
      "يُرْجَ": 6775,
      "مُحْرِمٌ": 6776,
      "يَعْرِفُ": 6777,
      "يَتَأَتَّي": 6778,
      "الْقَبْرِ": 6779,
      "إنْسَانٍ": 6780,
      "الْأَفْضَ": 6781,
      "لِلضَّرُورَةِ": 6782,
      "رَآهُ": 6783,
      "اعْلَمْ": 6784,
      "هُرِ": 6785,
      "وَةٌ": 6786,
      "هِبَ": 6787,
      "بِكْ": 6788,
      "تَمِي": 6789,
      "تَخْتَ": 6790,
      "فَذَهَبَ": 6791,
      "بَهْ": 6792,
      "يُفَرَّقُ": 6793,
      "عِبِ": 6794,
      "عِرُ": 6795,
      "فَافْ": 6796,
      "دِعِ": 6797,
      "فِرْ": 6798,
      "قِرْ": 6799,
      "الْأَصَا": 6800,
      "سِمَ": 6801,
      "سِبَ": 6802,
      "مَنْعُهُ": 6803,
      "هْدَةِ": 6804,
      "لِلْعَامِلِ": 6805,
      "وَإِلَيْهِ": 6806,
      "وَّلَ": 6807,
      "ذِرِ": 6808,
      "الِابْنُ": 6809,
      "طُلُو": 6810,
      "دُّدِ": 6811,
      "السَّلَا": 6812,
      "غَيْرُهَا": 6813,
      "يَعْلَ": 6814,
      "سِيرِ": 6815,
      "عَيْنُ": 6816,
      "بَلَدِهِ": 6817,
      "أَقْسَا": 6818,
      "إنَّهَا": 6819,
      "عَرَفَ": 6820,
      "فَسَدَتْ": 6821,
      "بَيَانٌ": 6822,
      "فَعُلِمَ": 6823,
      "أَبَوَيْهِ": 6824,
      "مُتَّجِ": 6825,
      "قَائِمٌ": 6826,
      "وَهَبَهُ": 6827,
      "حَاكِمٌ": 6828,
      "طَعَامًا": 6829,
      "التِّرْمِذِيُّ": 6830,
      "اسْتِحْقَاقِ": 6831,
      "مُرَتَّ": 6832,
      "الِاحْتِ": 6833,
      "الْوَلَاءُ": 6834,
      "الْجَارِيَةِ": 6835,
      "الشَّاهِدِ": 6836,
      "الْوَدِيعَةِ": 6837,
      "الْمَغْصُوبِ": 6838,
      "حَيَوَانٍ": 6839,
      "الْحَيَوَانِ": 6840,
      "لِانْتِفَاءِ": 6841,
      "أْ": 6842,
      "وَصَّ": 6843,
      "وَحُكْمُ": 6844,
      "لِسَا": 6845,
      "هِلَ": 6846,
      "بِسُ": 6847,
      "بِدَارِ": 6848,
      "بِعِوَضٍ": 6849,
      "رَثُ": 6850,
      "فَذَكَرَهُ": 6851,
      "نَمِ": 6852,
      "مُنِعَ": 6853,
      "حَصَ": 6854,
      "يُسْلِ": 6855,
      "يُطَالِ": 6856,
      "يُخَالِ": 6857,
      "جَلَسَ": 6858,
      "صَةَ": 6859,
      "تُفْ": 6860,
      "رَّةُ": 6861,
      "كِلَا": 6862,
      "وَالْقَوْلُ": 6863,
      "نِيَّةَ": 6864,
      "وَأَجَابَ": 6865,
      "الْإِشَا": 6866,
      "وَيَقُولُ": 6867,
      "ضَاعَ": 6868,
      "فَيَلْزَمُ": 6869,
      "يَتَزَوَّجَ": 6870,
      "دُونِ": 6871,
      "الْقَرْضِ": 6872,
      "نِصْفَهُ": 6873,
      "الطَّبَ": 6874,
      "الْوَاجِبُ": 6875,
      "أَرْبَعُ": 6876,
      "يَمِينِ": 6877,
      "الْمَنْفَعَ": 6878,
      "الْمُسْتَقْ": 6879,
      "الظِّ": 6880,
      "الْبَائِعَ": 6881,
      "بِحَمْ": 6882,
      "وَنَحْوِهِمَا": 6883,
      "خَالِدٍ": 6884,
      "جِنَايَةٍ": 6885,
      "جِنَايَتِهِ": 6886,
      "الْمَأْخُو": 6887,
      "الْوَطْءُ": 6888,
      "الْقِيَاسِ": 6889,
      "يُحَرِّ": 6890,
      "الْمَسْأَلَتَيْنِ": 6891,
      "يُدْخِ": 6892,
      "لَزِمَتْهُ": 6893,
      "حُرَّةً": 6894,
      "التَّسْلِيمِ": 6895,
      "غَيَّرَ": 6896,
      "الْأَكْلِ": 6897,
      "نَظِيرُ": 6898,
      "حَمَّادُ": 6899,
      "الظَّاهِرِ": 6900,
      "يَبْلُغْ": 6901,
      "تَطْلُقُ": 6902,
      "لِتَعَذُّرِ": 6903,
      "الْمَوْهُوبِ": 6904,
      "يُعَيِّنْ": 6905,
      "النَّوَوِيُّ": 6906,
      "وَنَقَلَهُ": 6907,
      "الْغَنِيمَةِ": 6908,
      "السَّرَخْ": 6909,
      "قَّةِ": 6910,
      "الْخِلَافَ": 6911,
      "تَوَا": 6912,
      "يَصُو": 6913,
      "فَصِ": 6914,
      "مُتْ": 6915,
      "بَنَا": 6916,
      "فِيِّ": 6917,
      "هَاتِ": 6918,
      "سَمْ": 6919,
      "حَالًا": 6920,
      "صِنْ": 6921,
      "صَايَا": 6922,
      "النَّذْرِ": 6923,
      "وَيَدُلُّ": 6924,
      "وَيَلْزَمُ": 6925,
      "وُضِ": 6926,
      "فَيَتَ": 6927,
      "فَيَدْ": 6928,
      "خَادِ": 6929,
      "حِيحُ": 6930,
      "يَتَحَ": 6931,
      "مَوْلَا": 6932,
      "وَتَصِحُّ": 6933,
      "أَمْكَنَهُ": 6934,
      "أَعْنِي": 6935,
      "غُرَمَاءِ": 6936,
      "زَوْجٌ": 6937,
      "قَّفَ": 6938,
      "الْجُلُو": 6939,
      "يَسْقُطْ": 6940,
      "قِيَاسًا": 6941,
      "بَدَلُ": 6942,
      "اعْتِقَا": 6943,
      "الْمُسْلِمُونَ": 6944,
      "يُنْقَ": 6945,
      "مُنْكِ": 6946,
      "الصُّوَرِ": 6947,
      "أَبْرَأَ": 6948,
      "لْحَقُ": 6949,
      "عُرْفِ": 6950,
      "قَابِلُهُ": 6951,
      "رَفْعِ": 6952,
      "مُحْتَا": 6953,
      "وَزْنِ": 6954,
      "بَطْنِ": 6955,
      "دَابَّةٍ": 6956,
      "السُّلْطَانُ": 6957,
      "يَعْقُوبَ": 6958,
      "الْمُتَأَخِّرِينَ": 6959,
      "الْحِنْطَةِ": 6960,
      "الْكُفَّارِ": 6961,
      "مُتَّجِهٌ": 6962,
      "الّ": 6963,
      "الْمِثْ": 6964,
      "عَتِي": 6965,
      "عَطِي": 6966,
      "بِشَ": 6967,
      "بِغَ": 6968,
      "تَهُمْ": 6969,
      "فَقُ": 6970,
      "رِضَاهُ": 6971,
      "لَّتْ": 6972,
      "جَنَي": 6973,
      "الْمُحَا": 6974,
      "عُقُو": 6975,
      "بَارُ": 6976,
      "حُذَيْ": 6977,
      "وَلَاؤُهُ": 6978,
      "وَلَدُهُ": 6979,
      "آلَا": 6980,
      "الرَّدَّ": 6981,
      "بِالْقَ": 6982,
      "شَاسٍ": 6983,
      "فَإِنَّهُمْ": 6984,
      "وَكَسْرِ": 6985,
      "الشَّمْسُ": 6986,
      "يَعْلَمَ": 6987,
      "اسْتِرْ": 6988,
      "حَيْضٍ": 6989,
      "صُهُ": 6990,
      "مَسْكَ": 6991,
      "وُجُودُ": 6992,
      "كَوْنَهُ": 6993,
      "الْمُصَلِّي": 6994,
      "أَرْبَعٍ": 6995,
      "مِائَتَيْنِ": 6996,
      "زَوَّجُ": 6997,
      "عِبَارَةِ": 6998,
      "يُّنِ": 6999,
      "يَجْتَمِ": 7000,
      "قَطْعُ": 7001,
      "يُصَرِّ": 7002,
      "وَأَنْكَرَ": 7003,
      "الْفِقْ": 7004,
      "جَائِزَةٌ": 7005,
      "الْوَجْهُ": 7006,
      "ذِكْرُهُ": 7007,
      "بِعَيْنِهَا": 7008,
      "يُونُسُ": 7009,
      "وَأَصْحَا": 7010,
      "الْكِفَا": 7011,
      "الْبَدَنِ": 7012,
      "يُكَفِّ": 7013,
      "الِانْتِفَاعِ": 7014,
      "يَتَعَرَّ": 7015,
      "التَّرْتِي": 7016,
      "فَتَأَمَّلْهُ": 7017,
      "لَعَلَّهُ": 7018,
      "لَفْظٍ": 7019,
      "الْمَأْذُونِ": 7020,
      "الْحَقِيقَةِ": 7021,
      "بَدْرٍ": 7022,
      "الْمُطْلَقِ": 7023,
      "عَفَّانُ": 7024,
      "الْجَنَابَةِ": 7025,
      "أَكَ": 7026,
      "أَيَّ": 7027,
      "أَبٍ": 7028,
      "وَبُ": 7029,
      "وَدَخَلَ": 7030,
      "الْبِئْرِ": 7031,
      "لِطَ": 7032,
      "لِزَوْجَتِهِ": 7033,
      "مِرْ": 7034,
      "رَعْ": 7035,
      "فَرَاجِعْهُ": 7036,
      "مُوَافِ": 7037,
      "بَنُو": 7038,
      "كَرِي": 7039,
      "إنَا": 7040,
      "عْلِ": 7041,
      "سَةٍ": 7042,
      "هَلُ": 7043,
      "جَوَّ": 7044,
      "الْأَمَةَ": 7045,
      "حُسَيْ": 7046,
      "وَالْخَ": 7047,
      "وَالْخُ": 7048,
      "قِيِّ": 7049,
      "تَاعَ": 7050,
      "فُقَرَاءِ": 7051,
      "لِلْخَبَرِ": 7052,
      "وَأَكْثَ": 7053,
      "أُجِيبَ": 7054,
      "الْإِبَا": 7055,
      "الْوَجِيزِ": 7056,
      "طُرُ": 7057,
      "الصَّبِيُّ": 7058,
      "زُهَيْ": 7059,
      "مَعْمَ": 7060,
      "عِهِمْ": 7061,
      "أَقْوَا": 7062,
      "الْخُلَاصَةِ": 7063,
      "الرَّاءِ": 7064,
      "عَشَرَةً": 7065,
      "زِيَادَةً": 7066,
      "سَمِعْت": 7067,
      "بَيَانُهُ": 7068,
      "جِنْسٍ": 7069,
      "وَاجِبًا": 7070,
      "يُرِيدَ": 7071,
      "الْحَمْلُ": 7072,
      "فَسْخُ": 7073,
      "تَسْلِيمِ": 7074,
      "إمَامِهِ": 7075,
      "ضَرُورَةٍ": 7076,
      "الْمَقْصُودُ": 7077,
      "نَصْرَا": 7078,
      "وَمَفْهُومُ": 7079,
      "وَأَيْضًا": 7080,
      "أَعَادَ": 7081,
      "وَفَرَّقَ": 7082,
      "لِوَاحِدٍ": 7083,
      "لِلَّذِي": 7084,
      "لِعَبْدِهِ": 7085,
      "بِشَهَادَةِ": 7086,
      "تَرَا": 7087,
      "نَجَّ": 7088,
      "مُتَقَوِّ": 7089,
      "بَرَّ": 7090,
      "مَاءٌ": 7091,
      "يُرَ": 7092,
      "جَةُ": 7093,
      "سِمَا": 7094,
      "بِيَّ": 7095,
      "وَالْأَوْجَهُ": 7096,
      "تَاعُ": 7097,
      "الْعَدُوِّ": 7098,
      "التَّبَرُّ": 7099,
      "وَسَلَّ": 7100,
      "الرَّضَاعِ": 7101,
      "صِيرَ": 7102,
      "غْرِ": 7103,
      "وَكَيْ": 7104,
      "لِلث": 7105,
      "يَأْتِ": 7106,
      "الْبَصْ": 7107,
      "الْبَرِّ": 7108,
      "أَعْمَي": 7109,
      "الْحَاوِي": 7110,
      "ثَلَاثُونَ": 7111,
      "الْأُمَّ": 7112,
      "بِمَالِهِ": 7113,
      "أَبُوهُ": 7114,
      "أَجْنَبِيِّ": 7115,
      "الْمَسْجِدَ": 7116,
      "لِيَةِ": 7117,
      "بِلَادِ": 7118,
      "عَيَّنَهُ": 7119,
      "قِيَاسِ": 7120,
      "عِبَارَتُهُ": 7121,
      "بَّانَ": 7122,
      "إِلَيَّ": 7123,
      "وَارِثٌ": 7124,
      "يَشْهَدَ": 7125,
      "سِتَّةَ": 7126,
      "الْمَبِيعُ": 7127,
      "الْجَوَابِ": 7128,
      "مَهْرَ": 7129,
      "اسْتِحْسَا": 7130,
      "وَفَارَقَ": 7131,
      "ذِمِّيًّا": 7132,
      "الْمَقْصُودَ": 7133,
      "الرَّمْيِ": 7134,
      "سَحْنُونٌ": 7135,
      "لِلصَّلَاةِ": 7136,
      "اللَّامِ": 7137,
      "مُوسِرًا": 7138,
      "بِالشُّفْعَةِ": 7139,
      "مَكَانَهُ": 7140,
      "حِنْطَةٍ": 7141,
      "الْآمِرِ": 7142,
      "أَعْطَاهُ": 7143,
      "الصُّلْحُ": 7144,
      "لَبِسَ": 7145,
      "وَصَرَّحَ": 7146,
      "نْتَ": 7147,
      "لِقُ": 7148,
      "لِعُذْرٍ": 7149,
      "مَسُّ": 7150,
      "بِآ": 7151,
      "بِأَحَدِهِمَا": 7152,
      "تَذْ": 7153,
      "مُخَالَفَ": 7154,
      "وَاهَا": 7155,
      "يُعَا": 7156,
      "عِكْرِ": 7157,
      "رَارِ": 7158,
      "رَاقِ": 7159,
      "نُقِلَ": 7160,
      "فُرْ": 7161,
      "التَّبْ": 7162,
      "خُيِّرَ": 7163,
      "السّ": 7164,
      "ضْهُ": 7165,
      "أَحَبُّ": 7166,
      "فَأَقَرَّ": 7167,
      "زَاءُ": 7168,
      "ابْنُهُ": 7169,
      "الْعِدَّةُ": 7170,
      "كِيلِ": 7171,
      "أَهْلِي": 7172,
      "جَّهَ": 7173,
      "فَرْضًا": 7174,
      "ظُهُو": 7175,
      "جِيءُ": 7176,
      "الْكَثِي": 7177,
      "وَرَدَّ": 7178,
      "كُلُّهُمْ": 7179,
      "سَبَبِ": 7180,
      "يَمِينًا": 7181,
      "الْفَرْضَ": 7182,
      "وَارِثِهِ": 7183,
      "وَارِثُهُ": 7184,
      "الْغُرَ": 7185,
      "الْفُقَرَاءِ": 7186,
      "فَاسِدٍ": 7187,
      "بْرَاءُ": 7188,
      "جِهَتِهِ": 7189,
      "شُعْبَةَ": 7190,
      "جَانِبِ": 7191,
      "وَقَضِيَّتُهُ": 7192,
      "مْتَنِعُ": 7193,
      "إنْسَانٌ": 7194,
      "إسْلَامِهِ": 7195,
      "الْحُرْمَةِ": 7196,
      "ذَكَّرَ": 7197,
      "يُتَوَهَّ": 7198,
      "بِحَضْرَةِ": 7199,
      "عِمْرَانَ": 7200,
      "الذ": 7201,
      "أَدَاءِ": 7202,
      "هُرُ": 7203,
      "وَحَا": 7204,
      "وَفَتْحِ": 7205,
      "الْمِنْ": 7206,
      "لِحَ": 7207,
      "بِعِتْقِهِ": 7208,
      "رَدِّهِ": 7209,
      "يَنْدَ": 7210,
      "بْرَأَ": 7211,
      "قَارَ": 7212,
      "الْمُحْتَ": 7213,
      "تُعْتَبَرُ": 7214,
      "حِنْ": 7215,
      "زَلْ": 7216,
      "زَكِّي": 7217,
      "التَّحَلُّ": 7218,
      "نْدَفَعَ": 7219,
      "تِيمِ": 7220,
      "ضْرِبْ": 7221,
      "ضَافَةِ": 7222,
      "شَائِ": 7223,
      "شَاةً": 7224,
      "خَانْ": 7225,
      "ظَهْ": 7226,
      "زِيدَ": 7227,
      "الْقَاعِ": 7228,
      "أَصْلُهُ": 7229,
      "الزَّيْلَ": 7230,
      "أَجْرَ": 7231,
      "الطَّوَافِ": 7232,
      "جَازَتْ": 7233,
      "اُحْ": 7234,
      "الْقِرَاضِ": 7235,
      "صَحَّحَهُ": 7236,
      "مِائَةُ": 7237,
      "قَدَّرُ": 7238,
      "صَحِيحَةٌ": 7239,
      "وَأَنْتَ": 7240,
      "وَصِيِّ": 7241,
      "سَهْوًا": 7242,
      "وَطْئِهَا": 7243,
      "شَهِدَا": 7244,
      "سَعِيدُ": 7245,
      "الْمُتَبَا": 7246,
      "الْوَاقِفُ": 7247,
      "اخْتِيَارِهِ": 7248,
      "كَسَرَ": 7249,
      "ادَّعَتْ": 7250,
      "اسْتِئْجَا": 7251,
      "صَادِقٌ": 7252,
      "أَثْنَا": 7253,
      "الْكُلَّ": 7254,
      "مَجَا": 7255,
      "هِبَةٍ": 7256,
      "بِقُرْ": 7257,
      "يَلْبَ": 7258,
      "فَصَلَ": 7259,
      "مُكَاتَبَ": 7260,
      "وَاحْ": 7261,
      "لْهُ": 7262,
      "دَعَ": 7263,
      "يُقِرَّ": 7264,
      "هَلَا": 7265,
      "جَنْ": 7266,
      "تْرُ": 7267,
      "الْمُوَا": 7268,
      "لِلْحَالِ": 7269,
      "صِرَ": 7270,
      "غَسَلَ": 7271,
      "الْحَلِفِ": 7272,
      "سَاءَ": 7273,
      "وَلَدَهُ": 7274,
      "وَاللَّهِ": 7275,
      "شَامِلٌ": 7276,
      "الشَّمْسِ": 7277,
      "الْبَزَّا": 7278,
      "انْقَضَتْ": 7279,
      "يَنْوِيَ": 7280,
      "شَرَةٍ": 7281,
      "يَقْضِيَ": 7282,
      "بَقِيَتْ": 7283,
      "الْبُرْ": 7284,
      "يُجْعَلُ": 7285,
      "يَجْرِي": 7286,
      "ثَمَنَهُ": 7287,
      "شَهْوَةٍ": 7288,
      "شَرِيكٌ": 7289,
      "اسْتِيفَاءِ": 7290,
      "عُذْرٌ": 7291,
      "الْجُمُعَةَ": 7292,
      "لِكَوْنِهَا": 7293,
      "قَضَاءَ": 7294,
      "كَفَّارَةِ": 7295,
      "وَلَدَتْهُ": 7296,
      "بَعِيدٌ": 7297,
      "التَّصَرُّفُ": 7298,
      "فَسَادِ": 7299,
      "النَّفَقَةُ": 7300,
      "قَلِيلًا": 7301,
      "الْمُقَرُّ": 7302,
      "مَصْدَ": 7303,
      "اخْتَارَهُ": 7304,
      "وَالثَّالِ": 7305,
      "بِأَمْرِهِ": 7306,
      "الِاسْتِحْقَاقِ": 7307,
      "عَطَاءٍ": 7308,
      "دَائِعِ": 7309,
      "الْكَفَالَةِ": 7310,
      "عَشَرَةَ": 7311,
      "يُؤَثِّرُ": 7312,
      "إشَارَةٌ": 7313,
      "سِيَّمَا": 7314,
      "جْتِهَادِ": 7315,
      "قٌّ": 7316,
      "مًّا": 7317,
      "الْمِنْهَا": 7318,
      "لِدَفْعِ": 7319,
      "بِدِرْهَمٍ": 7320,
      "بِأَقَلَّ": 7321,
      "قَدِي": 7322,
      "فَحِينَئِذٍ": 7323,
      "فَدَخَلَ": 7324,
      "بَتَيْنِ": 7325,
      "حَهَا": 7326,
      "بْرَةِ": 7327,
      "إنِّي": 7328,
      "سَلِمَ": 7329,
      "فِتْ": 7330,
      "كِلُ": 7331,
      "حُدَّ": 7332,
      "عَارِي": 7333,
      "إنْكَا": 7334,
      "خُذَ": 7335,
      "وَلَنَا": 7336,
      "وَإِنَّهُ": 7337,
      "رُوضِ": 7338,
      "الرَّحِ": 7339,
      "بَيْنَهَا": 7340,
      "صِيلُ": 7341,
      "فَأَعْ": 7342,
      "فَأَفْ": 7343,
      "لِلذَّ": 7344,
      "الْكَبِيرِ": 7345,
      "فَيُحْ": 7346,
      "أَشْهَدَ": 7347,
      "الِابْ": 7348,
      "تَنْفَ": 7349,
      "الْغَزَا": 7350,
      "أَهْلِهَا": 7351,
      "الْخُلْ": 7352,
      "وَأُمُّ": 7353,
      "الشُّفْ": 7354,
      "شَرْطِهِ": 7355,
      "شَهْرَيْنِ": 7356,
      "نَافِعِ": 7357,
      "النُّقْصَا": 7358,
      "حَاجَةٍ": 7359,
      "وُضُوءِ": 7360,
      "حَلَّتْ": 7361,
      "يَصْدُقُ": 7362,
      "عَائِشَةُ": 7363,
      "صَيْدًا": 7364,
      "النَّفْيِ": 7365,
      "الْوُضُوءُ": 7366,
      "مَحَلَّهُ": 7367,
      "الِاخْتِيَا": 7368,
      "الْمُدَبَّرِ": 7369,
      "رَحِمَهُمَا": 7370,
      "بِقَصْدِ": 7371,
      "وَصَّي": 7372,
      "الرّ": 7373,
      "بِالشَّرْطِ": 7374,
      "تَحِي": 7375,
      "تَيَمُّ": 7376,
      "قَسْ": 7377,
      "مِقْ": 7378,
      "يَصْرِ": 7379,
      "يَظُنُّ": 7380,
      "فَكَسْرٍ": 7381,
      "مُلَا": 7382,
      "مُخَيَّ": 7383,
      "مُسَافِ": 7384,
      "وَانُ": 7385,
      "كَلِمَ": 7386,
      "عْمَلُ": 7387,
      "سَمَاعِ": 7388,
      "صَرُّ": 7389,
      "الْمُشَا": 7390,
      "قَوْلُهُمْ": 7391,
      "جِرَا": 7392,
      "إِلَيْ": 7393,
      "سِلَ": 7394,
      "زَةَ": 7395,
      "ضَيَا": 7396,
      "ضَمُّ": 7397,
      "هْلَكَ": 7398,
      "حَاقُ": 7399,
      "لِلْمَرْأَةِ": 7400,
      "التَّصْ": 7401,
      "لِّمَ": 7402,
      "كَمَالُ": 7403,
      "رُورِ": 7404,
      "بِالْكُلِّ": 7405,
      "شَادِ": 7406,
      "خَامِ": 7407,
      "زْدَ": 7408,
      "زَادَتْ": 7409,
      "وَتَنْ": 7410,
      "خِيرَةِ": 7411,
      "لَفَهُ": 7412,
      "سَبَبُ": 7413,
      "الْوَارِ": 7414,
      "يُعْطِي": 7415,
      "كُلَّهَا": 7416,
      "امْرَأَتُهُ": 7417,
      "الْمُسْتَحِقُّ": 7418,
      "فَلَعَلَّ": 7419,
      "يُؤَا": 7420,
      "الشَّرْحِ": 7421,
      "عَقْدٌ": 7422,
      "ضَرَبَهُ": 7423,
      "الْوَصِيِّ": 7424,
      "زَمَنَ": 7425,
      "الْخَانِيَّةِ": 7426,
      "النُّسَخِ": 7427,
      "الْعَيْنُ": 7428,
      "الْأَعْلَي": 7429,
      "بَيْعُهَا": 7430,
      "الْعِلْمُ": 7431,
      "يَنْتَقِلُ": 7432,
      "اسْتَأْجَرَهُ": 7433,
      "مَلَكَهَا": 7434,
      "ضَمَانِهِ": 7435,
      "مَعْرِفَةُ": 7436,
      "الْمُحْرِمِ": 7437,
      "عُضْوٍ": 7438,
      "تَحَقَّقَ": 7439,
      "الْمِيرَاثِ": 7440,
      "صِيَةِ": 7441,
      "الْوُ": 7442,
      "لِصِحَّةِ": 7443,
      "بِصِحَّةِ": 7444,
      "تَصِيرُ": 7445,
      "تَقْتَضِي": 7446,
      "قَدِّ": 7447,
      "يَلْ": 7448,
      "نَفَّ": 7449,
      "حَرِي": 7450,
      "رِقَ": 7451,
      "رْتُ": 7452,
      "ذَي": 7453,
      "ذَكَا": 7454,
      "خَفِي": 7455,
      "الْمَيْتَ": 7456,
      "الْأَثْ": 7457,
      "ضِمْ": 7458,
      "يَابِ": 7459,
      "ذْنِ": 7460,
      "الْعَطْ": 7461,
      "الْإِلْ": 7462,
      "التَّطَوُّ": 7463,
      "الْحَلْ": 7464,
      "صَاعٍ": 7465,
      "أَحَقَّ": 7466,
      "دُودِ": 7467,
      "يَحْدُ": 7468,
      "يَنْعَقِدُ": 7469,
      "يَقْبَلْ": 7470,
      "وَالْمُعْتَ": 7471,
      "كِتَابُ": 7472,
      "وَقْتِهِ": 7473,
      "تَنْقَ": 7474,
      "حَدِيثٌ": 7475,
      "تَرْكُهُ": 7476,
      "وَأُجْ": 7477,
      "عَشَرَةٍ": 7478,
      "عَقْدَ": 7479,
      "نَصِيبَ": 7480,
      "وَطْءُ": 7481,
      "دِيَةَ": 7482,
      "صَوْمُهُ": 7483,
      "مُدَّةٍ": 7484,
      "الطَّا": 7485,
      "فَائِدَةُ": 7486,
      "عِدَّتِهَا": 7487,
      "قَضَاءً": 7488,
      "الْأَسْوَدِ": 7489,
      "مِسْكِي": 7490,
      "ثِنْتَيْنِ": 7491,
      "الْقُرْآنَ": 7492,
      "بِعَقْدٍ": 7493,
      "أَسْتَ": 7494,
      "وَوَ": 7495,
      "وَحَدَّثَنَا": 7496,
      "وَصُو": 7497,
      "وَقَالَا": 7498,
      "نْدِي": 7499,
      "لِأَبَوَيْنِ": 7500,
      "هِرَ": 7501,
      "بِوَلَدٍ": 7502,
      "بِثَمَنِهِ": 7503,
      "وْلِ": 7504,
      "تَقِ": 7505,
      "تَسَا": 7506,
      "مُشْتَرِي": 7507,
      "رِفُ": 7508,
      "سَةُ": 7509,
      "يُزَا": 7510,
      "قَالِ": 7511,
      "كَاهُ": 7512,
      "رَاغِ": 7513,
      "نَامَ": 7514,
      "قِطَ": 7515,
      "شَوْ": 7516,
      "بِيَا": 7517,
      "فُسِخَ": 7518,
      "لِلْآ": 7519,
      "جَارِهِ": 7520,
      "جَارَةٍ": 7521,
      "سَامَةَ": 7522,
      "وَإِسْ": 7523,
      "الْوَزْ": 7524,
      "عَبْدِي": 7525,
      "وَيُفْ": 7526,
      "ذُكُو": 7527,
      "انْفَسَخَ": 7528,
      "أَرْبَا": 7529,
      "شُرَيْ": 7530,
      "الْكَذِ": 7531,
      "لِيَكُونَ": 7532,
      "أَرْبَعَ": 7533,
      "الْغَلَّةِ": 7534,
      "مَانِعٌ": 7535,
      "الْخُنْثَي": 7536,
      "فُوتُ": 7537,
      "نَقْدًا": 7538,
      "سْلَامِهِ": 7539,
      "صَدَقَ": 7540,
      "دِيَةٌ": 7541,
      "الْمَشْيِ": 7542,
      "رَدَّهَا": 7543,
      "أَدْخَلَ": 7544,
      "تَبْلُ": 7545,
      "تَقْدِيمُ": 7546,
      "بَعْضَهَا": 7547,
      "الرَّهْنَ": 7548,
      "قَبُولُهُ": 7549,
      "عَدْلًا": 7550,
      "التَّصَدُّ": 7551,
      "اشْتِ": 7552,
      "الْمُضَارَبَةِ": 7553,
      "نِيَّتِهِ": 7554,
      "الزِّيَادَةُ": 7555,
      "ثَمَانِيَةٌ": 7556,
      "الْمَقْصُودِ": 7557,
      "الْجَوْهَ": 7558,
      "وَيَبْقَي": 7559,
      "تُسْمَعُ": 7560,
      "وَاخْتَارَهُ": 7561,
      "وَأَقَرَّهُ": 7562,
      "مُطَرِّ": 7563,
      "بِعَرَفَةَ": 7564,
      "اغْتَ": 7565,
      "عج": 7566,
      "وّ": 7567,
      "لَكُ": 7568,
      "لَئِ": 7569,
      "وَصِ": 7570,
      "وَصَلَّي": 7571,
      "عَثَ": 7572,
      "لِعَا": 7573,
      "لِغَرَ": 7574,
      "مَجَّا": 7575,
      "بِالنَّظَرِ": 7576,
      "رَطْ": 7577,
      "يَعُو": 7578,
      "مُسْتَأْ": 7579,
      "بَهِ": 7580,
      "بَتَّ": 7581,
      "بَغْ": 7582,
      "وَاقْتَ": 7583,
      "كَتْ": 7584,
      "مْكَانِ": 7585,
      "سَحُ": 7586,
      "يُهْ": 7587,
      "قَاصِ": 7588,
      "قَاءَ": 7589,
      "الْمُصْحَ": 7590,
      "إِنَّهُ": 7591,
      "وَالْغَ": 7592,
      "لِلْوَكِيلِ": 7593,
      "وَأَدْ": 7594,
      "الْعَمَلَ": 7595,
      "وَيَغْ": 7596,
      "بِالْمَاءِ": 7597,
      "شَاءُ": 7598,
      "فَيَمْ": 7599,
      "يَأْثَ": 7600,
      "الْفَرِي": 7601,
      "أَحْسَنَ": 7602,
      "تَأْخُذُ": 7603,
      "أَجْرِ": 7604,
      "يَبْعُدُ": 7605,
      "اُخْتُلِفَ": 7606,
      "الرِّي": 7607,
      "قَتْلُهُ": 7608,
      "وَعَتَقَ": 7609,
      "الضَّمَانَ": 7610,
      "بَيِّنَةَ": 7611,
      "تَصَوُّ": 7612,
      "مَرْدُو": 7613,
      "دَفْعًا": 7614,
      "مَكَّنَ": 7615,
      "أَيَّامِ": 7616,
      "عِدَّةَ": 7617,
      "تَكْبِي": 7618,
      "كَفَّارَةَ": 7619,
      "اقْتَضَاهُ": 7620,
      "حُرِّيَّةِ": 7621,
      "يُفِيدُهُ": 7622,
      "التَّقْيِي": 7623,
      "مَفْهُومُ": 7624,
      "الْأَصْحَابُ": 7625,
      "ارْتَدَّ": 7626,
      "طَاهِرٍ": 7627,
      "الْفَاسِدِ": 7628,
      "مَكَان": 7629,
      "الْتَزَمَ": 7630,
      "الْمَانِعِ": 7631,
      "الْمُشْتَرَكِ": 7632,
      "الْفُقَهَاءِ": 7633,
      "أَجِي": 7634,
      "أَثْنَاءِ": 7635,
      "وَظَاهِرٌ": 7636,
      "لِأَبِيهِ": 7637,
      "هِبَةُ": 7638,
      "بِمِائَةٍ": 7639,
      "يَطُو": 7640,
      "مُكْ": 7641,
      "مُلْتَ": 7642,
      "وَاتَّ": 7643,
      "بْت": 7644,
      "أَوْجُ": 7645,
      "فَادَ": 7646,
      "صَنَعَ": 7647,
      "الْمُعَلَّ": 7648,
      "الْمُعْتَا": 7649,
      "رَابَ": 7650,
      "نُسُ": 7651,
      "فِقْ": 7652,
      "غَيْبَتِهِ": 7653,
      "زَمْ": 7654,
      "وَالْحَالُ": 7655,
      "عَامَ": 7656,
      "لِلْمَالِكِ": 7657,
      "قَوْلِهِمَا": 7658,
      "دُّهُ": 7659,
      "الزَّا": 7660,
      "زِيِّ": 7661,
      "كَالْبَيْعِ": 7662,
      "جِئْ": 7663,
      "كِتَابٍ": 7664,
      "الِاثْنَ": 7665,
      "الْجُرْ": 7666,
      "ثُلُثَا": 7667,
      "نَقْلِ": 7668,
      "الدِّي": 7669,
      "يُجْزِي": 7670,
      "زِيَادَةٌ": 7671,
      "الْأَمْوَالِ": 7672,
      "حَمْلُهُ": 7673,
      "طْلَاقُ": 7674,
      "نَصِيبُ": 7675,
      "عَمَلٍ": 7676,
      "سَهْمَانِ": 7677,
      "فَسَقَطَ": 7678,
      "الْمَشْرُو": 7679,
      "فَوْقَهُ": 7680,
      "اعْتِبَارُ": 7681,
      "خَلْفَهُ": 7682,
      "عِوَضًا": 7683,
      "الْإِنْسَانِ": 7684,
      "بِشَرْطِهِ": 7685,
      "إخْرَاجُ": 7686,
      "فَضْلِ": 7687,
      "الثَّالِثَةُ": 7688,
      "دَاوُدَ": 7689,
      "نِيَّتُهُ": 7690,
      "الْمُفْلِسِ": 7691,
      "مُحْصَ": 7692,
      "ثَمَانِيَةَ": 7693,
      "ثَمَانِيَةٍ": 7694,
      "تَدْبِي": 7695,
      "وَلِيٍّ": 7696,
      "الزَّكَاةُ": 7697,
      "الْمُتَقَدِّمِ": 7698,
      "اللَّخْمِيُّ": 7699,
      "مَغْصُو": 7700,
      "طُهْرٍ": 7701,
      "لِلرَّجُلِ": 7702,
      "حَظِّ": 7703,
      "أَنْفُسِهِمْ": 7704,
      "يَسْجُدُ": 7705,
      "مَجَّانًا": 7706,
      "».": 7707,
      "ظَّ": 7708,
      "لي": 7709,
      "ونِ": 7710,
      "لَدَ": 7711,
      "الضِّ": 7712,
      "وَتْ": 7713,
      "وَقِ": 7714,
      "وَصُ": 7715,
      "وَبِمَا": 7716,
      "وَقَالَهُ": 7717,
      "وَرَاءَ": 7718,
      "وَيَأْخُذُ": 7719,
      "وَكُرِهَ": 7720,
      "الْوَاحِدَ": 7721,
      "لِبَعْضِ": 7722,
      "بِبَعْضِ": 7723,
      "بِجَوَازِ": 7724,
      "رَضِي": 7725,
      "فَهْ": 7726,
      "فَهَلَكَ": 7727,
      "مُلَ": 7728,
      "مَاجَهْ": 7729,
      "وَاسْتُ": 7730,
      "أَوْجَ": 7731,
      "هَلَّ": 7732,
      "جَيِّ": 7733,
      "صَرُ": 7734,
      "الْمُدَّةُ": 7735,
      "قْت": 7736,
      "يْهِمَا": 7737,
      "تَّا": 7738,
      "ثُمُ": 7739,
      "شْرَ": 7740,
      "زَعَمَ": 7741,
      "وَالْحَا": 7742,
      "صِلَ": 7743,
      "صَاعِ": 7744,
      "دِيّ": 7745,
      "مِيٌّ": 7746,
      "النَّصِّ": 7747,
      "وَيُجَابُ": 7748,
      "ظَرَ": 7749,
      "يَتَجَ": 7750,
      "لِلشُّ": 7751,
      "الْحَادِ": 7752,
      "غَارِ": 7753,
      "الزَّمَانِ": 7754,
      "فَيُقْ": 7755,
      "لِلْمُرْتَهِنِ": 7756,
      "طَلَبِهِ": 7757,
      "الِاتِّ": 7758,
      "الْوَاجِبَ": 7759,
      "وَنَصَّ": 7760,
      "قَتْهُ": 7761,
      "أَقْرَ": 7762,
      "أَقْرَبِ": 7763,
      "نَقْصِ": 7764,
      "الرُّؤْيَةِ": 7765,
      "يَدْرِي": 7766,
      "جُزْءٌ": 7767,
      "أَمَةٌ": 7768,
      "ذُوا": 7769,
      "أُمِّي": 7770,
      "طُولِ": 7771,
      "ثَوْبِهِ": 7772,
      "حِصَّةُ": 7773,
      "وِيَةِ": 7774,
      "مَهْرٍ": 7775,
      "وَسُكُو": 7776,
      "لِأَجَ": 7777,
      "تَخْرُجُ": 7778,
      "الْقِسْمَةُ": 7779,
      "يَشْتَرِطْ": 7780,
      "تَرَتَّ": 7781,
      "نَزَلَتْ": 7782,
      "يَأْكُلَ": 7783,
      "تَصَرُّفِهِ": 7784,
      "الثَّالِثِ": 7785,
      "لِلِاسْتِ": 7786,
      "يَبِيعَ": 7787,
      "مُؤْمِ": 7788,
      "مَفْهُومَ": 7789,
      "الِانْتِفَا": 7790,
      "ضَّأُ": 7791,
      "الْإِرْثِ": 7792,
      "إحْرَامِهِ": 7793,
      "عِيَالِهِ": 7794,
      "لِيَأْ": 7795,
      "التَّمَتُّ": 7796,
      "الْمُحْرِمُ": 7797,
      "مُوَرِّ": 7798,
      "مُجَرَّدُ": 7799,
      "أَشَدُّ": 7800,
      "مُعْسِرًا": 7801,
      "الْمُؤَلِّفِ": 7802,
      "الْوَصْفِ": 7803,
      "تت": 7804,
      "عب": 7805,
      "لّا": 7806,
      "لَهِي": 7807,
      "وَيُو": 7808,
      "الْهَا": 7809,
      "عَقَ": 7810,
      "عَقَا": 7811,
      "عَشَرَةِ": 7812,
      "بِالْعَيْنِ": 7813,
      "وْمٍ": 7814,
      "قَمْ": 7815,
      "قَفُ": 7816,
      "قَتِي": 7817,
      "مُفَ": 7818,
      "مُدَّعِي": 7819,
      "مُتَبَرِّ": 7820,
      "وَاتُ": 7821,
      "كَفَي": 7822,
      "لَاقِ": 7823,
      "قَانِيٌّ": 7824,
      "كَالِ": 7825,
      "فَاحِ": 7826,
      "عُتْ": 7827,
      "بُعِ": 7828,
      "الْأَيَّا": 7829,
      "كْتُ": 7830,
      "سِرَ": 7831,
      "ضَةٌ": 7832,
      "وَالْأَقْرَبُ": 7833,
      "حَالِهَا": 7834,
      "لِلْقِ": 7835,
      "لِلْمُوصَي": 7836,
      "ضْمَ": 7837,
      "رِّي": 7838,
      "مِثْلٍ": 7839,
      "فَأَعْتَقَ": 7840,
      "الْبَطْ": 7841,
      "الْبَدَائِعِ": 7842,
      "شُعَيْبٍ": 7843,
      "خِيفَ": 7844,
      "الطَّلَبِ": 7845,
      "أَسْبَا": 7846,
      "الْحُرُّ": 7847,
      "يَسْتَلْزِمُ": 7848,
      "وَلَيْسَتْ": 7849,
      "الْقِتَالِ": 7850,
      "الضَّرْبِ": 7851,
      "الْمَعْلُو": 7852,
      "يُقْسَمُ": 7853,
      "الْمُسْتَحِقِّ": 7854,
      "ضَرَرَ": 7855,
      "الشَّيْخَانِ": 7856,
      "رِوَايَتَانِ": 7857,
      "عَامِرِ": 7858,
      "مُتَعَدِّ": 7859,
      "مَوْضِعِهِ": 7860,
      "يُفْسِ": 7861,
      "وَكِيلِهِ": 7862,
      "مُعَيَّنَةٍ": 7863,
      "يُقَيِّ": 7864,
      "صِفَةٌ": 7865,
      "تَكْفِي": 7866,
      "تَصْدِي": 7867,
      "نَهَارًا": 7868,
      "عُبَيْدَةَ": 7869,
      "الرُّجُوعَ": 7870,
      "الْمُحَرَّمِ": 7871,
      "صَرِفُ": 7872,
      "ذِمِّيٌّ": 7873,
      "وَلِيِّهِ": 7874,
      "مُقَدَّمٌ": 7875,
      "مَنْزِلَةَ": 7876,
      "طَاهِرٌ": 7877,
      "وَلِيُّهُ": 7878,
      "وَاخْتَارَ": 7879,
      "أُمَيَّةَ": 7880,
      "اصْ": 7881,
      "وَتِهِ": 7882,
      "مَشَايِ": 7883,
      "بِعِتْقِ": 7884,
      "بِثَمَنٍ": 7885,
      "مِنُ": 7886,
      "نَوَاهُ": 7887,
      "مُمْكِ": 7888,
      "بَدَا": 7889,
      "مَائِ": 7890,
      "كَفَ": 7891,
      "يُمَ": 7892,
      "يُكَلَّ": 7893,
      "فَاطِ": 7894,
      "ذَاتِ": 7895,
      "مَنْقُو": 7896,
      "هْنِ": 7897,
      "أُحْ": 7898,
      "أُولَي": 7899,
      "غَدًا": 7900,
      "خِهِ": 7901,
      "التَّشَهُّ": 7902,
      "صِيرِ": 7903,
      "الصَّوَابُ": 7904,
      "يَتَهُ": 7905,
      "يَأْذَنْ": 7906,
      "وَتَوَ": 7907,
      "الدَّوَا": 7908,
      "رَجَعَتْ": 7909,
      "أَمْرَ": 7910,
      "مَسْجِدِ": 7911,
      "جِيُّ": 7912,
      "فَالْإِ": 7913,
      "الْمَسْحُ": 7914,
      "بِّرُ": 7915,
      "ابْتَ": 7916,
      "الرِّجَالِ": 7917,
      "قَتْلٍ": 7918,
      "تَحْرُمُ": 7919,
      "يَخْلُ": 7920,
      "تَرْكَ": 7921,
      "يِيرِ": 7922,
      "مُتَفَرِّ": 7923,
      "الْمَذْكُورَ": 7924,
      "بِالتَّعْ": 7925,
      "رَكْعَ": 7926,
      "الْمُنْذِرِ": 7927,
      "حَجُّ": 7928,
      "الْوَكِيلَ": 7929,
      "عَوْفٍ": 7930,
      "بِسَبَبِهِ": 7931,
      "صِفَةُ": 7932,
      "صِفَةً": 7933,
      "مَنَعَهُ": 7934,
      "مُرَادُهُ": 7935,
      "الْإِقْرَارَ": 7936,
      "يَأْخُذَهُ": 7937,
      "شَاهِدٌ": 7938,
      "تَسْلِيمِهِ": 7939,
      "صَبِيًّا": 7940,
      "الْقَوْمِ": 7941,
      "تَيَقَّ": 7942,
      "تَيَمَّمَ": 7943,
      "يُضَمِّ": 7944,
      "لِعُمُومِ": 7945,
      "مُقَيَّدٌ": 7946,
      "خَاصٌّ": 7947,
      "مُنْفَرِدًا": 7948,
      "خَمْسُمِائَةٍ": 7949,
      "وَسَلَّم": 7950,
      "طَيْنِ": 7951,
      "أَعْتَ": 7952,
      "وَلِيَ": 7953,
      "وَثَبَتَ": 7954,
      "الْجِي": 7955,
      "الْأَوْلَادِ": 7956,
      "لِوَرَثَتِهِ": 7957,
      "مَجُوسِي": 7958,
      "بِرَقَبَتِهِ": 7959,
      "تَطَ": 7960,
      "فَلِأَنَّهُ": 7961,
      "إبْرَاهِيمَ": 7962,
      "لَّتِي": 7963,
      "سَفَرٍ": 7964,
      "أَوْقَ": 7965,
      "أَوْلِيَا": 7966,
      "صَنْ": 7967,
      "ذَاتِهِ": 7968,
      "نُدِبَ": 7969,
      "عَلَيْهِنَّ": 7970,
      "شَقَّةِ": 7971,
      "رِيَّ": 7972,
      "حَاضَتْ": 7973,
      "وَلَاءُ": 7974,
      "وَأَبْ": 7975,
      "وَأَكْ": 7976,
      "الْحَبْسِ": 7977,
      "زِمَهُ": 7978,
      "يَتَكَلَّ": 7979,
      "مَعْصُو": 7980,
      "السَّعْ": 7981,
      "انْفَرَ": 7982,
      "فَقَةِ": 7983,
      "قُلْتَ": 7984,
      "مُحَمّ": 7985,
      "أَصْلٌ": 7986,
      "الزَّوَالِ": 7987,
      "مَسْحِ": 7988,
      "تَأْثِي": 7989,
      "الْكَفِّ": 7990,
      "الْبَالِ": 7991,
      "فَيُجْ": 7992,
      "طِيُّ": 7993,
      "مُسْتَقْ": 7994,
      "الرِّعَايَةِ": 7995,
      "أَقْرَبَ": 7996,
      "الضَّرَ": 7997,
      "مَجْلِسِ": 7998,
      "خَيْبَرَ": 7999
    },
    "merges": [
      [
        "َ",
        "ا"
      ],
      [
        "ل",
        "َ"
      ],
      [
        "ا",
        "ل"
      ],
      [
        "َ",
        "ٔ"
      ],
      [
        "َ",
        "ّ"
      ],
      [
        "ِ",
        "ي"
      ],
      [
        "ا",
        "َٔ"
      ],
      [
        "ه",
        "ُ"
      ],
      [
        "و",
        "َ"
      ],
      [
        "ال",
        "ْ"
      ],
      [
        "ن",
        "ْ"
      ],
      [
        "ع",
        "َ"
      ],
      [
        "ل",
        "ِ"
      ],
      [
        "م",
        "َ"
      ],
      [
        "ه",
        "ِ"
      ],
      [
        "ي",
        "ْ"
      ],
      [
        "ب",
        "ِ"
      ],
      [
        "و",
        "ْ"
      ],
      [
        "ت",
        "َ"
      ],
      [
        "ق",
        "َ"
      ],
      [
        "م",
        "ِ"
      ],
      [
        "ر",
        "َ"
      ],
      [
        "ي",
        "َ"
      ],
      [
        "ف",
        "َ"
      ],
      [
        "ن",
        "َ"
      ],
      [
        "م",
        "ُ"
      ],
      [
        "ب",
        "َ"
      ],
      [
        "م",
        "َا"
      ],
      [
        "و",
        "َا"
      ],
      [
        "ك",
        "َ"
      ],
      [
        "ل",
        "َا"
      ],
      [
        "ن",
        "َّ"
      ],
      [
        "ُ",
        "و"
      ],
      [
        "ف",
        "ِي"
      ],
      [
        "م",
        "ْ"
      ],
      [
        "ح",
        "َ"
      ],
      [
        "ل",
        "ُ"
      ],
      [
        "ل",
        "ْ"
      ],
      [
        "د",
        "َ"
      ],
      [
        "ر",
        "ِ"
      ],
      [
        "ن",
        "ِ"
      ],
      [
        "عَ",
        "لَ"
      ],
      [
        "ب",
        "ْ"
      ],
      [
        "ه",
        "َا"
      ],
      [
        "ِ",
        "ٕ"
      ],
      [
        "ة",
        "ِ"
      ],
      [
        "ا",
        "ٕ"
      ],
      [
        "مِ",
        "نْ"
      ],
      [
        "ع",
        "ْ"
      ],
      [
        "لَ",
        "ّ"
      ],
      [
        "أَ",
        "نَّ"
      ],
      [
        "س",
        "َ"
      ],
      [
        "س",
        "ْ"
      ],
      [
        "ً",
        "ا"
      ],
      [
        "ر",
        "ْ"
      ],
      [
        "ي",
        "ُ"
      ],
      [
        "ق",
        "َا"
      ],
      [
        "ِ",
        "ّ"
      ],
      [
        "ر",
        "ُ"
      ],
      [
        "أَ",
        "وْ"
      ],
      [
        "قَ",
        "وْ"
      ],
      [
        "ت",
        "ِ"
      ],
      [
        "ه",
        "َ"
      ],
      [
        "ع",
        "ِ"
      ],
      [
        "ك",
        "َا"
      ],
      [
        "ف",
        "َا"
      ],
      [
        "ج",
        "َ"
      ],
      [
        "ذ",
        "َ"
      ],
      [
        "د",
        "ِ"
      ],
      [
        "ُ",
        "ّ"
      ],
      [
        "ص",
        "َ"
      ],
      [
        "ح",
        "ْ"
      ],
      [
        "عَلَ",
        "ي"
      ],
      [
        "ذ",
        "َا"
      ],
      [
        "ت",
        "ْ"
      ],
      [
        "الْ",
        "مُ"
      ],
      [
        "لُ",
        "هُ"
      ],
      [
        "م",
        "َّ"
      ],
      [
        "ر",
        "َا"
      ],
      [
        "ن",
        "ُ"
      ],
      [
        "ق",
        "ْ"
      ],
      [
        "َ",
        "يْ"
      ],
      [
        "ن",
        "َا"
      ],
      [
        "لَ",
        "هُ"
      ],
      [
        "يْ",
        "هِ"
      ],
      [
        "ع",
        "ُ"
      ],
      [
        "د",
        "َّ"
      ],
      [
        "قَا",
        "لَ"
      ],
      [
        "لَ",
        "مْ"
      ],
      [
        "عَ",
        "نْ"
      ],
      [
        "قَوْ",
        "لُهُ"
      ],
      [
        "ث",
        "َ"
      ],
      [
        "خ",
        "َ"
      ],
      [
        "ت",
        "ُ"
      ],
      [
        "ف",
        "ِ"
      ],
      [
        "خ",
        "ْ"
      ],
      [
        "أَ",
        "يْ"
      ],
      [
        "ح",
        "ِ"
      ],
      [
        "ة",
        "َ"
      ],
      [
        "الْ",
        "مَ"
      ],
      [
        "ف",
        "ْ"
      ],
      [
        "أَنَّ",
        "هُ"
      ],
      [
        "د",
        "ُ"
      ],
      [
        "لِ",
        "كَ"
      ],
      [
        "ة",
        "ُ"
      ],
      [
        "أَ",
        "نْ"
      ],
      [
        "ك",
        "ُ"
      ],
      [
        "د",
        "ْ"
      ],
      [
        "عَلَ",
        "يْهِ"
      ],
      [
        "ِٕ",
        "نْ"
      ],
      [
        "ب",
        "ُ"
      ],
      [
        "ذَ",
        "لِكَ"
      ],
      [
        "ج",
        "ِ"
      ],
      [
        "لَ",
        "وْ"
      ],
      [
        "ق",
        "ِ"
      ],
      [
        "ج",
        "ْ"
      ],
      [
        "ر",
        "َّ"
      ],
      [
        "كَا",
        "نَ"
      ],
      [
        "ا",
        "ِٕ"
      ],
      [
        "ِي",
        "َ"
      ],
      [
        "الْ",
        "أَ"
      ],
      [
        "ك",
        "ْ"
      ],
      [
        "ت",
        "َّ"
      ],
      [
        "ق",
        "ُ"
      ],
      [
        "ث",
        "ُ"
      ],
      [
        "ش",
        "َ"
      ],
      [
        "ة",
        "ٍ"
      ],
      [
        "س",
        "ِ"
      ],
      [
        "ك",
        "ِ"
      ],
      [
        "غ",
        "َيْ"
      ],
      [
        "ب",
        "ِي"
      ],
      [
        "ب",
        "َا"
      ],
      [
        "ش",
        "ْ"
      ],
      [
        "هُ",
        "وَ"
      ],
      [
        "ص",
        "ْ"
      ],
      [
        "ز",
        "َ"
      ],
      [
        "ض",
        "َ"
      ],
      [
        "ي",
        "ِ"
      ],
      [
        "ُ",
        "ٔ"
      ],
      [
        "بِ",
        "هِ"
      ],
      [
        "ح",
        "ُ"
      ],
      [
        "ط",
        "َ"
      ],
      [
        "إ",
        "لَ"
      ],
      [
        "وَا",
        "لْ"
      ],
      [
        "ر",
        "ِي"
      ],
      [
        "ال",
        "لَّ"
      ],
      [
        "يِ",
        "ٔ"
      ],
      [
        "مَ",
        "نْ"
      ],
      [
        "بَ",
        "يْ"
      ],
      [
        "ع",
        "َا"
      ],
      [
        "بَ",
        "عْ"
      ],
      [
        "ة",
        "ً"
      ],
      [
        "ن",
        "ِي"
      ],
      [
        "ة",
        "ٌ"
      ],
      [
        "ج",
        "ُ"
      ],
      [
        "ه",
        "ْ"
      ],
      [
        "ح",
        "َا"
      ],
      [
        "ق",
        "ِي"
      ],
      [
        "َّ",
        "ا"
      ],
      [
        "ت",
        "َا"
      ],
      [
        "ف",
        "ُ"
      ],
      [
        "ْ",
        "ٔ"
      ],
      [
        "ط",
        "ْ"
      ],
      [
        "لِ",
        "لْ"
      ],
      [
        "وَ",
        "لَا"
      ],
      [
        "يْ",
        "نِ"
      ],
      [
        "وَا",
        "ِٕنْ"
      ],
      [
        "ل",
        "ِي"
      ],
      [
        "وَا",
        "َٔ"
      ],
      [
        "لِ",
        "هِ"
      ],
      [
        "ا",
        "ُٔ"
      ],
      [
        "لِ",
        "أَنَّ"
      ],
      [
        "ج",
        "َا"
      ],
      [
        "ر",
        "ٍ"
      ],
      [
        "ض",
        "ِ"
      ],
      [
        "ص",
        "ِ"
      ],
      [
        "ي",
        "َا"
      ],
      [
        "بْ",
        "نِ"
      ],
      [
        "غَيْ",
        "رِ"
      ],
      [
        "ذ",
        "ْ"
      ],
      [
        "الْ",
        "عَ"
      ],
      [
        "د",
        "ٍ"
      ],
      [
        "ء",
        "ِ"
      ],
      [
        "ث",
        "ْ"
      ],
      [
        "هَ",
        "ذَا"
      ],
      [
        "تِ",
        "هِ"
      ],
      [
        "فِي",
        "هِ"
      ],
      [
        "بْ",
        "نُ"
      ],
      [
        "غ",
        "َ"
      ],
      [
        "الْ",
        "إِ"
      ],
      [
        "مِنْ",
        "هُ"
      ],
      [
        "خ",
        "ِ"
      ],
      [
        "قَ",
        "دْ"
      ],
      [
        "لَّ",
        "ا"
      ],
      [
        "لِ",
        "أَنَّهُ"
      ],
      [
        "س",
        "ُ"
      ],
      [
        "د",
        "َا"
      ],
      [
        "سْ",
        "تَ"
      ],
      [
        "ال",
        "تَّ"
      ],
      [
        "لِ",
        "ّ"
      ],
      [
        "ك",
        "ُو"
      ],
      [
        "وَ",
        "لَوْ"
      ],
      [
        "الْ",
        "حَ"
      ],
      [
        "ص",
        "َا"
      ],
      [
        "إ",
        "نْ"
      ],
      [
        "مَّ",
        "ا"
      ],
      [
        "ثُ",
        "مَّ"
      ],
      [
        "د",
        "ِي"
      ],
      [
        "م",
        "ِي"
      ],
      [
        "وَ",
        "هُوَ"
      ],
      [
        "س",
        "َا"
      ],
      [
        "إ",
        "ذَا"
      ],
      [
        "خ",
        "ُ"
      ],
      [
        "وَ",
        "لَ"
      ],
      [
        "بَعْ",
        "دَ"
      ],
      [
        "ج",
        "ُو"
      ],
      [
        "ل",
        "ٍ"
      ],
      [
        "قَ",
        "بْ"
      ],
      [
        "ال",
        "ش"
      ],
      [
        "كَ",
        "مَا"
      ],
      [
        "ص",
        "َّ"
      ],
      [
        "اللَّ",
        "هُ"
      ],
      [
        "ي",
        "ِّ"
      ],
      [
        "وَا",
        "ِٕ"
      ],
      [
        "ا",
        "ٓ"
      ],
      [
        "فَا",
        "ِٕنْ"
      ],
      [
        "مَ",
        "عَ"
      ],
      [
        "و",
        "َّ"
      ],
      [
        "ال",
        "س"
      ],
      [
        "ال",
        "نَّ"
      ],
      [
        "م",
        "ٍ"
      ],
      [
        "ع",
        "ِي"
      ],
      [
        "ذ",
        "ِ"
      ],
      [
        "فَا",
        "ِٕ"
      ],
      [
        "إلَ",
        "ي"
      ],
      [
        "وَ",
        "يَ"
      ],
      [
        "لَ",
        "ي"
      ],
      [
        "فَ",
        "لَا"
      ],
      [
        "ز",
        "ِ"
      ],
      [
        "و",
        "ُ"
      ],
      [
        "ر",
        "ٌ"
      ],
      [
        "الْ",
        "وَ"
      ],
      [
        "نْ",
        "دَ"
      ],
      [
        "ر",
        "ُو"
      ],
      [
        "ي",
        "َّ"
      ],
      [
        "وَ",
        "سَ"
      ],
      [
        "ق",
        "ُو"
      ],
      [
        "وَا",
        "ل"
      ],
      [
        "ء",
        "َ"
      ],
      [
        "ال",
        "رَّ"
      ],
      [
        "ش",
        "َيْ"
      ],
      [
        "مَا",
        "لِ"
      ],
      [
        "بَيْ",
        "نَ"
      ],
      [
        "ل",
        "ٌ"
      ],
      [
        "لُ",
        "ّ"
      ],
      [
        "هُ",
        "مَا"
      ],
      [
        "ط",
        "ِ"
      ],
      [
        "بِ",
        "الْ"
      ],
      [
        "عِ",
        "نْدَ"
      ],
      [
        "نِ",
        "ّ"
      ],
      [
        "ت",
        "ِي"
      ],
      [
        "ض",
        "ْ"
      ],
      [
        "هُ",
        "مْ"
      ],
      [
        "يْ",
        "سَ"
      ],
      [
        "ل",
        "ًا"
      ],
      [
        "ن",
        "ٍ"
      ],
      [
        "عَ",
        "بْ"
      ],
      [
        "شْ",
        "تَ"
      ],
      [
        "ال",
        "ث"
      ],
      [
        "ض",
        "َا"
      ],
      [
        "ص",
        "ِي"
      ],
      [
        "ب",
        "ُو"
      ],
      [
        "ط",
        "َا"
      ],
      [
        "أَ",
        "حَ"
      ],
      [
        "ض",
        "ُ"
      ],
      [
        "مُ",
        "و"
      ],
      [
        "تَ",
        "قَ"
      ],
      [
        "ال",
        "ِ"
      ],
      [
        "د",
        "ِّ"
      ],
      [
        "ث",
        "ِ"
      ],
      [
        "ش",
        "َا"
      ],
      [
        "فَ",
        "يَ"
      ],
      [
        "لَّ",
        "ي"
      ],
      [
        "أَ",
        "بِي"
      ],
      [
        "إ",
        "لَّا"
      ],
      [
        "رَ",
        "ةِ"
      ],
      [
        "دِ",
        "هِ"
      ],
      [
        "فَإِ",
        "نَّ"
      ],
      [
        "رِ",
        "ّ"
      ],
      [
        "خ",
        "َا"
      ],
      [
        "رَ",
        "هُ"
      ],
      [
        "صَ",
        "لَّي"
      ],
      [
        "قَبْ",
        "لَ"
      ],
      [
        "غ",
        "ْ"
      ],
      [
        "قَوْ",
        "لِهِ"
      ],
      [
        "ا",
        "سْ"
      ],
      [
        "لَّ",
        "مَ"
      ],
      [
        "ذ",
        "ِي"
      ],
      [
        "ح",
        "ِي"
      ],
      [
        "َّ",
        "ةِ"
      ],
      [
        "حَ",
        "ق"
      ],
      [
        "إلَ",
        "خْ"
      ],
      [
        "ط",
        "ُ"
      ],
      [
        "حَ",
        "دَّ"
      ],
      [
        "ب",
        "ٍ"
      ],
      [
        "ل",
        "ُو"
      ],
      [
        "وَ",
        "يُ"
      ],
      [
        "خِ",
        "لَا"
      ],
      [
        "ظ",
        "َ"
      ],
      [
        "وَ",
        "كَ"
      ],
      [
        "ر",
        "ًا"
      ],
      [
        "نَ",
        "فْ"
      ],
      [
        "ال",
        "صَّ"
      ],
      [
        "تُ",
        "هُ"
      ],
      [
        "اللَّ",
        "هِ"
      ],
      [
        "ا",
        "لَّ"
      ],
      [
        "عَنْ",
        "هُ"
      ],
      [
        "مِ",
        "ثْ"
      ],
      [
        "فَا",
        "َٔ"
      ],
      [
        "د",
        "ٌ"
      ],
      [
        "الش",
        "َّ"
      ],
      [
        "يَ",
        "تَ"
      ],
      [
        "ز",
        "ُ"
      ],
      [
        "حَدَّ",
        "ثَ"
      ],
      [
        "ز",
        "ْ"
      ],
      [
        "مَ",
        "عْ"
      ],
      [
        "وَسَ",
        "لَّمَ"
      ],
      [
        "ي",
        "ُو"
      ],
      [
        "ز",
        "َا"
      ],
      [
        "و",
        "ِ"
      ],
      [
        "لَ",
        "ةِ"
      ],
      [
        "وَا",
        "حِ"
      ],
      [
        "رُ",
        "ّ"
      ],
      [
        "عَ",
        "دَ"
      ],
      [
        "د",
        "ُّ"
      ],
      [
        "د",
        "ُو"
      ],
      [
        "ال",
        "ز"
      ],
      [
        "لَ",
        "يْسَ"
      ],
      [
        "عْ",
        "تَ"
      ],
      [
        "ض",
        "ِي"
      ],
      [
        "وَ",
        "لَمْ"
      ],
      [
        "يَ",
        "حْ"
      ],
      [
        "ا",
        "بْنُ"
      ],
      [
        "ّ",
        "ا"
      ],
      [
        "غَيْرِ",
        "هِ"
      ],
      [
        "م",
        "ٌ"
      ],
      [
        "ذ",
        "ُ"
      ],
      [
        "حُ",
        "كْ"
      ],
      [
        "لِ",
        "ل"
      ],
      [
        "الس",
        "َّ"
      ],
      [
        "يَ",
        "كُو"
      ],
      [
        "يَا",
        "ْٔ"
      ],
      [
        "الْ",
        "قَ"
      ],
      [
        "نِ",
        "هِ"
      ],
      [
        "رِ",
        "هِ"
      ],
      [
        "ذَ",
        "كَ"
      ],
      [
        "مَ",
        "وْ"
      ],
      [
        "شَ",
        "رْ"
      ],
      [
        "صِ",
        "ح"
      ],
      [
        "مِ",
        "ّ"
      ],
      [
        "الْ",
        "بَ"
      ],
      [
        "حَدَّثَ",
        "نَا"
      ],
      [
        "ا",
        "نْ"
      ],
      [
        "مَ",
        "ةِ"
      ],
      [
        "غَيْ",
        "رُ"
      ],
      [
        "وَ",
        "تَ"
      ],
      [
        "ال",
        "دَّ"
      ],
      [
        "يَ",
        "نْ"
      ],
      [
        "ص",
        "ُو"
      ],
      [
        "الْ",
        "فَ"
      ],
      [
        "س",
        "ُو"
      ],
      [
        "أَ",
        "رْ"
      ],
      [
        "د",
        "ًا"
      ],
      [
        "يَ",
        "عْ"
      ],
      [
        "رَ",
        "جَ"
      ],
      [
        "نَ",
        "حْ"
      ],
      [
        "ز",
        "ِي"
      ],
      [
        "فَ",
        "قَ"
      ],
      [
        "تَّ",
        "ي"
      ],
      [
        "ء",
        "ُ"
      ],
      [
        "سْ",
        "لِ"
      ],
      [
        "مِ",
        "لْ"
      ],
      [
        "و",
        "ِي"
      ],
      [
        "وَ",
        "جَ"
      ],
      [
        "ء",
        "ٌ"
      ],
      [
        "أَ",
        "مْ"
      ],
      [
        "ه",
        "ِيَ"
      ],
      [
        "سِ",
        "هِ"
      ],
      [
        "رَا",
        "َٔ"
      ],
      [
        "ض",
        "ًا"
      ],
      [
        "حَ",
        "تَّي"
      ],
      [
        "الَّ",
        "ذِي"
      ],
      [
        "أَ",
        "خْ"
      ],
      [
        "مِ",
        "هِ"
      ],
      [
        "ً",
        "ّا"
      ],
      [
        "الْ",
        "جَ"
      ],
      [
        "كُ",
        "لِّ"
      ],
      [
        "بَ",
        "لْ"
      ],
      [
        "م",
        "ًا"
      ],
      [
        "وَ",
        "قَدْ"
      ],
      [
        "بَ",
        "ةِ"
      ],
      [
        "كُ",
        "نْ"
      ],
      [
        "مَ",
        "هُ"
      ],
      [
        "وَ",
        "قَ"
      ],
      [
        "ع",
        "ًا"
      ],
      [
        "ء",
        "ٍ"
      ],
      [
        "ٍ",
        "ّ"
      ],
      [
        "رَ",
        "ي"
      ],
      [
        "بِ",
        "هَا"
      ],
      [
        "تَ",
        "عَ"
      ],
      [
        "ش",
        "ُ"
      ],
      [
        "قُ",
        "لْ"
      ],
      [
        "آ",
        "خَ"
      ],
      [
        "اسْ",
        "تِ"
      ],
      [
        "أَ",
        "عْ"
      ],
      [
        "مُ",
        "هُ"
      ],
      [
        "يَ",
        "وْ"
      ],
      [
        "الْ",
        "حَا"
      ],
      [
        "مُ",
        "حَ"
      ],
      [
        "نَّ",
        "مَا"
      ],
      [
        "وَ",
        "قَالَ"
      ],
      [
        "جِ",
        "بُ"
      ],
      [
        "ا",
        "بْنِ"
      ],
      [
        "الْ",
        "مَا"
      ],
      [
        "يَ",
        "ةِ"
      ],
      [
        "نَ",
        "ي"
      ],
      [
        "الْ",
        "عِ"
      ],
      [
        "ذِ",
        "هِ"
      ],
      [
        "ط",
        "َّ"
      ],
      [
        "ب",
        "َّ"
      ],
      [
        "ٌ",
        "ّ"
      ],
      [
        "لَ",
        "هَا"
      ],
      [
        "خِلَا",
        "فِ"
      ],
      [
        "غ",
        "َا"
      ],
      [
        "حَ",
        "يْ"
      ],
      [
        "رَ",
        "جُ"
      ],
      [
        "وَ",
        "فِي"
      ],
      [
        "قْ",
        "تَ"
      ],
      [
        "الث",
        "َّ"
      ],
      [
        "هُ",
        "و"
      ],
      [
        "ع",
        "ٍ"
      ],
      [
        "ظ",
        "َا"
      ],
      [
        "عَ",
        "ةِ"
      ],
      [
        "ص",
        "ُ"
      ],
      [
        "فَ",
        "قَالَ"
      ],
      [
        "كَانَ",
        "تْ"
      ],
      [
        "الْ",
        "قَا"
      ],
      [
        "كَ",
        "لَا"
      ],
      [
        "هَ",
        "ذِهِ"
      ],
      [
        "ب",
        "ًا"
      ],
      [
        "مَ",
        "رَ"
      ],
      [
        "لْ",
        "زَ"
      ],
      [
        "أَ",
        "صْ"
      ],
      [
        "ن",
        "ٌ"
      ],
      [
        "الز",
        "َّ"
      ],
      [
[...]
